{
  "version": "1.0",
  "truncation": null,
  "padding": null,
  "added_tokens": [
    {
      "id": 0,
      "content": "[UNK]",
      "single_word": false,
      "lstrip": false,
      "rstrip": false,
      "normalized": false,
      "special": true
    },
    {
      "id": 1,
      "content": "[PAD]",
      "single_word": false,
      "lstrip": false,
      "rstrip": false,
      "normalized": false,
      "special": true
    },
    {
      "id": 2,
      "content": "[CLS]",
      "single_word": false,
      "lstrip": false,
      "rstrip": false,
      "normalized": false,
      "special": true
    },
    {
      "id": 3,
      "content": "[SEP]",
      "single_word": false,
      "lstrip": false,
      "rstrip": false,
      "normalized": false,
      "special": true
    },
    {
      "id": 4,
      "content": "[MASK]",
      "single_word": false,
      "lstrip": false,
      "rstrip": false,
      "normalized": false,
      "special": true
    }
  ],
  "normalizer": null,
  "pre_tokenizer": {
    "type": "Whitespace"
  },
  "post_processor": null,
  "decoder": null,
  "model": {
    "type": "BPE",
    "dropout": null,
    "unk_token": "[UNK]",
    "continuing_subword_prefix": null,
    "end_of_word_suffix": null,
    "fuse_unk": false,
    "byte_fallback": false,
    "ignore_merges": false,
    "vocab": {
      "[UNK]": 0,
      "[PAD]": 1,
      "[CLS]": 2,
      "[SEP]": 3,
      "[MASK]": 4,
      "_": 5,
      "a": 6,
      "b": 7,
      "c": 8,
      "d": 9,
      "e": 10,
      "f": 11,
      "g": 12,
      "h": 13,
      "i": 14,
      "j": 15,
      "k": 16,
      "l": 17,
      "m": 18,
      "n": 19,
      "o": 20,
      "p": 21,
      "q": 22,
      "r": 23,
      "s": 24,
      "t": 25,
      "u": 26,
      "v": 27,
      "w": 28,
      "x": 29,
      "y": 30,
      "z": 31,
      "ª": 32,
      "¼": 33,
      "á": 34,
      "â": 35,
      "ä": 36,
      "å": 37,
      "è": 38,
      "ì": 39,
      "ï": 40,
      "ð": 41,
      "ò": 42,
      "ó": 43,
      "ô": 44,
      "õ": 45,
      "ö": 46,
      "û": 47,
      "in": 48,
      "re": 49,
      "on": 50,
      "er": 51,
      "ing": 52,
      "ll": 53,
      "an": 54,
      "st": 55,
      "en": 56,
      "at": 57,
      "ar": 58,
      "th": 59,
      "me": 60,
      "or": 61,
      "le": 62,
      "ay": 63,
      "ed": 64,
      "ou": 65,
      "ca": 66,
      "go": 67,
      "ch": 68,
      "al": 69,
      "et": 70,
      "se": 71,
      "co": 72,
      "it": 73,
      "ve": 74,
      "lo": 75,
      "sh": 76,
      "li": 77,
      "ss": 78,
      "im": 79,
      "ke": 80,
      "one": 81,
      "ow": 82,
      "te": 83,
      "ce": 84,
      "ri": 85,
      "ur": 86,
      "de": 87,
      "call": 88,
      "gh": 89,
      "op": 90,
      "ly": 91,
      "day": 92,
      "ent": 93,
      "ck": 94,
      "ok": 95,
      "ti": 96,
      "ne": 97,
      "la": 98,
      "un": 99,
      "he": 100,
      "xt": 101,
      "ad": 102,
      "to": 103,
      "we": 104,
      "ght": 105,
      "ha": 106,
      "end": 107,
      "mo": 108,
      "get": 109,
      "ill": 110,
      "ma": 111,
      "ant": 112,
      "so": 113,
      "ont": 114,
      "id": 115,
      "ro": 116,
      "ge": 117,
      "ry": 118,
      "od": 119,
      "lt": 120,
      "ate": 121,
      "nt": 122,
      "ba": 123,
      "ld": 124,
      "pp": 125,
      "ho": 126,
      "ct": 127,
      "ver": 128,
      "as": 129,
      "mi": 130,
      "be": 131,
      "wor": 132,
      "pl": 133,
      "fe": 134,
      "fre": 135,
      "su": 136,
      "bo": 137,
      "ye": 138,
      "po": 139,
      "ra": 140,
      "thing": 141,
      "ir": 142,
      "gt": 143,
      "now": 144,
      "mp": 145,
      "free": 146,
      "di": 147,
      "min": 148,
      "ta": 149,
      "sp": 150,
      "got": 151,
      "gu": 152,
      "dont": 153,
      "ine": 154,
      "vi": 155,
      "us": 156,
      "good": 157,
      "time": 158,
      "come": 159,
      "ion": 160,
      "ight": 161,
      "know": 162,
      "bi": 163,
      "ltgt": 164,
      "all": 165,
      "ive": 166,
      "wi": 167,
      "wa": 168,
      "nd": 169,
      "like": 170,
      "and": 171,
      "na": 172,
      "any": 173,
      "lea": 174,
      "sa": 175,
      "want": 176,
      "text": 177,
      "no": 178,
      "love": 179,
      "ard": 180,
      "ff": 181,
      "mor": 182,
      "xx": 183,
      "um": 184,
      "ink": 185,
      "txt": 186,
      "way": 187,
      "ble": 188,
      "art": 189,
      "ek": 190,
      "pi": 191,
      "send": 192,
      "week": 193,
      "rep": 194,
      "wat": 195,
      "ms": 196,
      "per": 197,
      "fin": 198,
      "some": 199,
      "da": 200,
      "age": 201,
      "hi": 202,
      "si": 203,
      "mu": 204,
      "cu": 205,
      "ep": 206,
      "sor": 207,
      "cou": 208,
      "pro": 209,
      "ph": 210,
      "see": 211,
      "need": 212,
      "ever": 213,
      "stop": 214,
      "ite": 215,
      "ber": 216,
      "ter": 217,
      "work": 218,
      "mobi": 219,
      "mobile": 220,
      "fu": 221,
      "jo": 222,
      "lat": 223,
      "happ": 224,
      "om": 225,
      "today": 226,
      "cla": 227,
      "new": 228,
      "pri": 229,
      "think": 230,
      "lor": 231,
      "qu": 232,
      "going": 233,
      "read": 234,
      "ally": 235,
      "bu": 236,
      "fri": 237,
      "home": 238,
      "con": 239,
      "lu": 240,
      "ah": 241,
      "fa": 242,
      "pa": 243,
      "red": 244,
      "tell": 245,
      "ats": 246,
      "am": 247,
      "ound": 248,
      "ex": 249,
      "back": 250,
      "sorry": 251,
      "reply": 252,
      "row": 253,
      "still": 254,
      "phone": 255,
      "reat": 256,
      "msg": 257,
      "wait": 258,
      "take": 259,
      "ru": 260,
      "ask": 261,
      "el": 262,
      "ther": 263,
      "than": 264,
      "ci": 265,
      "oo": 266,
      "miss": 267,
      "well": 268,
      "spe": 269,
      "say": 270,
      "do": 271,
      "for": 272,
      "hop": 273,
      "night": 274,
      "mm": 275,
      "il": 276,
      "ac": 277,
      "you": 278,
      "mess": 279,
      "friend": 280,
      "act": 281,
      "later": 282,
      "plea": 283,
      "up": 284,
      "every": 285,
      "ready": 286,
      "meet": 287,
      "pls": 288,
      "please": 289,
      "ice": 290,
      "tone": 291,
      "cant": 292,
      "dear": 293,
      "ning": 294,
      "line": 295,
      "right": 296,
      "make": 297,
      "ev": 298,
      "sc": 299,
      "tion": 300,
      "claim": 301,
      "hope": 302,
      "ze": 303,
      "che": 304,
      "oh": 305,
      "ser": 306,
      "win": 307,
      "ì_": 308,
      "let": 309,
      "box": 310,
      "pe": 311,
      "much": 312,
      "message": 313,
      "great": 314,
      "num": 315,
      "our": 316,
      "out": 317,
      "der": 318,
      "wh": 319,
      "ga": 320,
      "ic": 321,
      "late": 322,
      "hey": 323,
      "thank": 324,
      "amp": 325,
      "ft": 326,
      "wan": 327,
      "cont": 328,
      "ong": 329,
      "number": 330,
      "ish": 331,
      "ring": 332,
      "give": 333,
      "happy": 334,
      "ward": 335,
      "ment": 336,
      "gr": 337,
      "ia": 338,
      "ting": 339,
      "morrow": 340,
      "es": 341,
      "rea": 342,
      "ation": 343,
      "alk": 344,
      "gi": 345,
      "care": 346,
      "comp": 347,
      "fr": 348,
      "sle": 349,
      "tomorrow": 350,
      "feel": 351,
      "yes": 352,
      "ction": 353,
      "may": 354,
      "ya": 355,
      "rent": 356,
      "ort": 357,
      "prize": 358,
      "gent": 359,
      "off": 360,
      "pre": 361,
      "sent": 362,
      "lle": 363,
      "ance": 364,
      "the": 365,
      "thats": 366,
      "com": 367,
      "morning": 368,
      "land": 369,
      "did": 370,
      "fi": 371,
      "try": 372,
      "ving": 373,
      "pick": 374,
      "stu": 375,
      "ster": 376,
      "ould": 377,
      "cash": 378,
      "life": 379,
      "ty": 380,
      "already": 381,
      "even": 382,
      "son": 383,
      "babe": 384,
      "said": 385,
      "mon": 386,
      "va": 387,
      "dun": 388,
      "yeah": 389,
      "sleep": 390,
      "fo": 391,
      "pu": 392,
      "really": 393,
      "colle": 394,
      "man": 395,
      "ton": 396,
      "wo": 397,
      "vice": 398,
      "find": 399,
      "app": 400,
      "car": 401,
      "ip": 402,
      "show": 403,
      "hav": 404,
      "fir": 405,
      "would": 406,
      "int": 407,
      "last": 408,
      "how": 409,
      "thou": 410,
      "is": 411,
      "wk": 412,
      "look": 413,
      "thanks": 414,
      "didnt": 415,
      "pr": 416,
      "pla": 417,
      "nok": 418,
      "sm": 419,
      "ity": 420,
      "year": 421,
      "buy": 422,
      "service": 423,
      "chat": 424,
      "lol": 425,
      "keep": 426,
      "sub": 427,
      "sure": 428,
      "cust": 429,
      "lp": 430,
      "use": 431,
      "val": 432,
      "wish": 433,
      "ary": 434,
      "play": 435,
      "anything": 436,
      "speci": 437,
      "contact": 438,
      "smi": 439,
      "also": 440,
      "dr": 441,
      "start": 442,
      "urgent": 443,
      "watch": 444,
      "nokia": 445,
      "oney": 446,
      "word": 447,
      "mr": 448,
      "ner": 449,
      "part": 450,
      "ange": 451,
      "hell": 452,
      "plan": 453,
      "bt": 454,
      "mar": 455,
      "bab": 456,
      "something": 457,
      "count": 458,
      "king": 459,
      "ath": 460,
      "could": 461,
      "place": 462,
      "award": 463,
      "est": 464,
      "finish": 465,
      "au": 466,
      "soon": 467,
      "ful": 468,
      "dy": 469,
      "gon": 470,
      "ol": 471,
      "talk": 472,
      "lot": 473,
      "cess": 474,
      "ki": 475,
      "sw": 476,
      "tc": 477,
      "ous": 478,
      "boy": 479,
      "went": 480,
      "mob": 481,
      "first": 482,
      "dre": 483,
      "dat": 484,
      "ju": 485,
      "sit": 486,
      "yo": 487,
      "around": 488,
      "help": 489,
      "guy": 490,
      "someone": 491,
      "custom": 492,
      "ak": 493,
      "many": 494,
      "ouch": 495,
      "next": 496,
      "ways": 497,
      "person": 498,
      "waiting": 499,
      "ear": 500,
      "tru": 501,
      "char": 502,
      "imp": 503,
      "name": 504,
      "tonight": 505,
      "customer": 506,
      "bus": 507,
      "money": 508,
      "real": 509,
      "less": 510,
      "gud": 511,
      "gue": 512,
      "check": 513,
      "nice": 514,
      "sun": 515,
      "mean": 516,
      "cost": 517,
      "joy": 518,
      "date": 519,
      "eat": 520,
      "kk": 521,
      "ure": 522,
      "ang": 523,
      "cam": 524,
      "chi": 525,
      "room": 526,
      "leave": 527,
      "cor": 528,
      "hu": 529,
      "ny": 530,
      "net": 531,
      "other": 532,
      "pt": 533,
      "sk": 534,
      "always": 535,
      "live": 536,
      "able": 537,
      "gg": 538,
      "gir": 539,
      "mber": 540,
      "sch": 541,
      "rece": 542,
      "own": 543,
      "haha": 544,
      "minu": 545,
      "lar": 546,
      "ni": 547,
      "pm": 548,
      "sat": 549,
      "yet": 550,
      "shop": 551,
      "book": 552,
      "dis": 553,
      "coming": 554,
      "month": 555,
      "bit": 556,
      "du": 557,
      "wont": 558,
      "told": 559,
      "dra": 560,
      "fun": 561,
      "fine": 562,
      "mat": 563,
      "whe": 564,
      "ìï": 565,
      "aran": 566,
      "mail": 567,
      "mind": 568,
      "youre": 569,
      "frnd": 570,
      "special": 571,
      "girl": 572,
      "hour": 573,
      "long": 574,
      "tri": 575,
      "ople": 576,
      "fuck": 577,
      "smile": 578,
      "hello": 579,
      "af": 580,
      "bet": 581,
      "bir": 582,
      "cle": 583,
      "pay": 584,
      "tra": 585,
      "ste": 586,
      "thk": 587,
      "ppm": 588,
      "xxx": 589,
      "happen": 590,
      "people": 591,
      "reach": 592,
      "minute": 593,
      "bed": 594,
      "din": 595,
      "done": 596,
      "dri": 597,
      "swe": 598,
      "sex": 599,
      "teed": 600,
      "getting": 601,
      "pobox": 602,
      "guaran": 603,
      "stuff": 604,
      "guaranteed": 605,
      "lun": 606,
      "rate": 607,
      "set": 608,
      "med": 609,
      "member": 610,
      "ouse": 611,
      "best": 612,
      "class": 613,
      "quest": 614,
      "offer": 615,
      "thought": 616,
      "cra": 617,
      "eve": 618,
      "lect": 619,
      "heart": 620,
      "vide": 621,
      "house": 622,
      "ret": 623,
      "lose": 624,
      "liday": 625,
      "holiday": 626,
      "scri": 627,
      "havent": 628,
      "draw": 629,
      "lunch": 630,
      "hr": 631,
      "ling": 632,
      "enjoy": 633,
      "low": 634,
      "with": 635,
      "job": 636,
      "game": 637,
      "den": 638,
      "era": 639,
      "dec": 640,
      "proble": 641,
      "hal": 642,
      "ore": 643,
      "yup": 644,
      "god": 645,
      "shit": 646,
      "never": 647,
      "mas": 648,
      "vie": 649,
      "hows": 650,
      "where": 651,
      "better": 652,
      "dar": 653,
      "wr": 654,
      "cool": 655,
      "opt": 656,
      "asy": 657,
      "poly": 658,
      "account": 659,
      "meeting": 660,
      "trying": 661,
      "guess": 662,
      "problem": 663,
      "br": 664,
      "bro": 665,
      "hur": 666,
      "ved": 667,
      "won": 668,
      "inc": 669,
      "ough": 670,
      "cal": 671,
      "coz": 672,
      "ody": 673,
      "full": 674,
      "sweet": 675,
      "ao": 676,
      "mate": 677,
      "sur": 678,
      "tle": 679,
      "chance": 680,
      "load": 681,
      "world": 682,
      "big": 683,
      "weekend": 684,
      "birth": 685,
      "video": 686,
      "half": 687,
      "dad": 688,
      "iz": 689,
      "je": 690,
      "ship": 691,
      "noon": 692,
      "latest": 693,
      "subscri": 694,
      "receive": 695,
      "bring": 696,
      "vouch": 697,
      "rect": 698,
      "whats": 699,
      "wonder": 700,
      "voucher": 701,
      "ie": 702,
      "par": 703,
      "stay": 704,
      "stand": 705,
      "urn": 706,
      "head": 707,
      "nothing": 708,
      "pic": 709,
      "side": 710,
      "luv": 711,
      "face": 712,
      "put": 713,
      "prin": 714,
      "awarded": 715,
      "camera": 716,
      "body": 717,
      "kin": 718,
      "ng": 719,
      "ping": 720,
      "sir": 721,
      "tu": 722,
      "åõ": 723,
      "rest": 724,
      "another": 725,
      "los": 726,
      "liao": 727,
      "join": 728,
      "ringtone": 729,
      "landline": 730,
      "baby": 731,
      "question": 732,
      "bad": 733,
      "hand": 734,
      "jus": 735,
      "lit": 736,
      "nite": 737,
      "code": 738,
      "list": 739,
      "hear": 740,
      "quite": 741,
      "ool": 742,
      "kiss": 743,
      "dinner": 744,
      "birthday": 745,
      "ag": 746,
      "ap": 747,
      "tr": 748,
      "ten": 749,
      "ank": 750,
      "ouble": 751,
      "might": 752,
      "post": 753,
      "congr": 754,
      "there": 755,
      "ai": 756,
      "det": 757,
      "ee": 758,
      "gn": 759,
      "run": 760,
      "uk": 761,
      "remember": 762,
      "ited": 763,
      "worry": 764,
      "wake": 765,
      "speak": 766,
      "forgot": 767,
      "actu": 768,
      "collect": 769,
      "apply": 770,
      "watching": 771,
      "network": 772,
      "aight": 773,
      "cent": 774,
      "ola": 775,
      "sin": 776,
      "tv": 777,
      "called": 778,
      "supp": 779,
      "point": 780,
      "probab": 781,
      "early": 782,
      "after": 783,
      "probably": 784,
      "blo": 785,
      "cy": 786,
      "don": 787,
      "sound": 788,
      "two": 789,
      "walk": 790,
      "zy": 791,
      "inv": 792,
      "answ": 793,
      "eng": 794,
      "orange": 795,
      "shall": 796,
      "light": 797,
      "temp": 798,
      "pain": 799,
      "thanx": 800,
      "maybe": 801,
      "princess": 802,
      "actually": 803,
      "easy": 804,
      "ja": 805,
      "mum": 806,
      "sen": 807,
      "ugh": 808,
      "vd": 809,
      "stor": 810,
      "left": 811,
      "select": 812,
      "ition": 813,
      "sha": 814,
      "liver": 815,
      "tel": 816,
      "movie": 817,
      "wife": 818,
      "xxxx": 819,
      "must": 820,
      "luck": 821,
      "gift": 822,
      "office": 823,
      "dunno": 824,
      "dress": 825,
      "shopping": 826,
      "answer": 827,
      "em": 828,
      "hun": 829,
      "nor": 830,
      "ple": 831,
      "sed": 832,
      "tmr": 833,
      "ren": 834,
      "leh": 835,
      "cond": 836,
      "evening": 837,
      "dream": 838,
      "hurt": 839,
      "little": 840,
      "blu": 841,
      "gin": 842,
      "ji": 843,
      "pound": 844,
      "sing": 845,
      "town": 846,
      "yr": 847,
      "zz": 848,
      "ence": 849,
      "enough": 850,
      "ital": 851,
      "shes": 852,
      "test": 853,
      "entry": 854,
      "made": 855,
      "ason": 856,
      "anyway": 857,
      "working": 858,
      "does": 859,
      "everything": 860,
      "though": 861,
      "looking": 862,
      "ather": 863,
      "school": 864,
      "afternoon": 865,
      "selected": 866,
      "ail": 867,
      "cred": 868,
      "ei": 869,
      "gy": 870,
      "top": 871,
      "vo": 872,
      "who": 873,
      "xmas": 874,
      "lly": 875,
      "col": 876,
      "she": 877,
      "caller": 878,
      "enti": 879,
      "hold": 880,
      "wif": 881,
      "asked": 882,
      "missing": 883,
      "when": 884,
      "drink": 885,
      "true": 886,
      "sexy": 887,
      "without": 888,
      "detail": 889,
      "ach": 890,
      "bb": 891,
      "can": 892,
      "gra": 893,
      "hmm": 894,
      "mus": 895,
      "nw": 896,
      "pmin": 897,
      "indi": 898,
      "str": 899,
      "ari": 900,
      "arm": 901,
      "arch": 902,
      "led": 903,
      "came": 904,
      "sec": 905,
      "deliver": 906,
      "okay": 907,
      "til": 908,
      "lation": 909,
      "price": 910,
      "lub": 911,
      "else": 912,
      "ortant": 913,
      "press": 914,
      "wot": 915,
      "charge": 916,
      "important": 917,
      "since": 918,
      "air": 919,
      "abt": 920,
      "bat": 921,
      "double": 922,
      "ffe": 923,
      "ot": 924,
      "rite": 925,
      "smo": 926,
      "vate": 927,
      "wen": 928,
      "search": 929,
      "imal": 930,
      "cket": 931,
      "till": 932,
      "hair": 933,
      "wanted": 934,
      "missed": 935,
      "update": 936,
      "collection": 937,
      "valid": 938,
      "lesson": 939,
      "doesnt": 940,
      "colour": 941,
      "ast": 942,
      "away": 943,
      "aft": 944,
      "club": 945,
      "gb": 946,
      "hl": 947,
      "simp": 948,
      "tor": 949,
      "ree": 950,
      "sto": 951,
      "change": 952,
      "oper": 953,
      "tot": 954,
      "plz": 955,
      "plus": 956,
      "bored": 957,
      "used": 958,
      "but": 959,
      "form": 960,
      "ational": 961,
      "juz": 962,
      "decimal": 963,
      "optout": 964,
      "bs": 965,
      "brea": 966,
      "cur": 967,
      "ding": 968,
      "lf": 969,
      "oso": 970,
      "pra": 971,
      "slow": 972,
      "vy": 973,
      "ww": 974,
      "wed": 975,
      "online": 976,
      "attemp": 977,
      "goin": 978,
      "alright": 979,
      "key": 980,
      "under": 981,
      "move": 982,
      "hot": 983,
      "beau": 984,
      "yester": 985,
      "saw": 986,
      "weekly": 987,
      "pub": 988,
      "drop": 989,
      "dude": 990,
      "story": 991,
      "music": 992,
      "attempt": 993,
      "yesterday": 994,
      "cum": 995,
      "ger": 996,
      "gal": 997,
      "lin": 998,
      "mth": 999,
      "nat": 1000,
      "rc": 1001,
      "sy": 1002,
      "sion": 1003,
      "tsc": 1004,
      "rer": 1005,
      "res": 1006,
      "ator": 1007,
      "lei": 1008,
      "del": 1009,
      "open": 1010,
      "haf": 1011,
      "making": 1012,
      "ltdecimal": 1013,
      "mily": 1014,
      "beli": 1015,
      "rain": 1016,
      "direct": 1017,
      "friendship": 1018,
      "feeling": 1019,
      "food": 1020,
      "trip": 1021,
      "credit": 1022,
      "tscs": 1023,
      "ltdecimalgt": 1024,
      "bla": 1025,
      "down": 1026,
      "fone": 1027,
      "hard": 1028,
      "jay": 1029,
      "my": 1030,
      "national": 1031,
      "port": 1032,
      "sad": 1033,
      "spo": 1034,
      "tty": 1035,
      "ven": 1036,
      "llow": 1037,
      "order": 1038,
      "cause": 1039,
      "second": 1040,
      "ried": 1041,
      "address": 1042,
      "ltd": 1043,
      "diff": 1044,
      "sae": 1045,
      "cut": 1046,
      "family": 1047,
      "valu": 1048,
      "player": 1049,
      "auction": 1050,
      "tried": 1051,
      "driving": 1052,
      "listen": 1053,
      "either": 1054,
      "delivery": 1055,
      "break": 1056,
      "aa": 1057,
      "bon": 1058,
      "card": 1059,
      "close": 1060,
      "fan": 1061,
      "fant": 1062,
      "mur": 1063,
      "mad": 1064,
      "pur": 1065,
      "pmsg": 1066,
      "wid": 1067,
      "sty": 1068,
      "medi": 1069,
      "lim": 1070,
      "calling": 1071,
      "tiful": 1072,
      "toge": 1073,
      "mom": 1074,
      "pass": 1075,
      "study": 1076,
      "vai": 1077,
      "sleeping": 1078,
      "busy": 1079,
      "child": 1080,
      "train": 1081,
      "brother": 1082,
      "subscribe": 1083,
      "smoke": 1084,
      "beautiful": 1085,
      "believe": 1086,
      "bonus": 1087,
      "together": 1088,
      "ab": 1089,
      "await": 1090,
      "bar": 1091,
      "bank": 1092,
      "fla": 1093,
      "fil": 1094,
      "gd": 1095,
      "hit": 1096,
      "ked": 1097,
      "old": 1098,
      "ts": 1099,
      "treat": 1100,
      "touch": 1101,
      "reet": 1102,
      "reason": 1103,
      "that": 1104,
      "lete": 1105,
      "alone": 1106,
      "self": 1107,
      "its": 1108,
      "rist": 1109,
      "okie": 1110,
      "took": 1111,
      "wel": 1112,
      "max": 1113,
      "suite": 1114,
      "mine": 1115,
      "leaving": 1116,
      "noe": 1117,
      "sil": 1118,
      "news": 1119,
      "parent": 1120,
      "expi": 1121,
      "oot": 1122,
      "saying": 1123,
      "forget": 1124,
      "content": 1125,
      "smiling": 1126,
      "ously": 1127,
      "kku": 1128,
      "huh": 1129,
      "match": 1130,
      "drive": 1131,
      "secret": 1132,
      "awe": 1133,
      "abi": 1134,
      "avai": 1135,
      "bor": 1136,
      "bill": 1137,
      "cd": 1138,
      "cm": 1139,
      "cn": 1140,
      "cer": 1141,
      "cat": 1142,
      "email": 1143,
      "found": 1144,
      "hor": 1145,
      "ide": 1146,
      "ick": 1147,
      "men": 1148,
      "mal": 1149,
      "mid": 1150,
      "tin": 1151,
      "ulation": 1152,
      "wit": 1153,
      "yar": 1154,
      "ans": 1155,
      "star": 1156,
      "cha": 1157,
      "lover": 1158,
      "loving": 1159,
      "enter": 1160,
      "tomo": 1161,
      "ided": 1162,
      "taking": 1163,
      "spon": 1164,
      "visit": 1165,
      "wil": 1166,
      "final": 1167,
      "prob": 1168,
      "private": 1169,
      "thinking": 1170,
      "quiz": 1171,
      "fast": 1172,
      "everyone": 1173,
      "seri": 1174,
      "fore": 1175,
      "started": 1176,
      "finished": 1177,
      "kind": 1178,
      "congrats": 1179,
      "mths": 1180,
      "awesome": 1181,
      "availa": 1182,
      "cine": 1183,
      "gas": 1184,
      "jan": 1185,
      "kid": 1186,
      "ped": 1187,
      "snow": 1188,
      "sms": 1189,
      "ult": 1190,
      "usu": 1191,
      "reve": 1192,
      "rede": 1193,
      "respon": 1194,
      "state": 1195,
      "ener": 1196,
      "cho": 1197,
      "choo": 1198,
      "iting": 1199,
      "entine": 1200,
      "neva": 1201,
      "laugh": 1202,
      "unsubscribe": 1203,
      "atever": 1204,
      "worth": 1205,
      "die": 1206,
      "dist": 1207,
      "iness": 1208,
      "anyone": 1209,
      "sister": 1210,
      "cult": 1211,
      "paper": 1212,
      "upd": 1213,
      "company": 1214,
      "complete": 1215,
      "rently": 1216,
      "valentine": 1217,
      "specially": 1218,
      "angry": 1219,
      "chikku": 1220,
      "gging": 1221,
      "ject": 1222,
      "simple": 1223,
      "operator": 1224,
      "download": 1225,
      "available": 1226,
      "statement": 1227,
      "fy": 1228,
      "far": 1229,
      "hm": 1230,
      "knw": 1231,
      "sco": 1232,
      "sim": 1233,
      "song": 1234,
      "wj": 1235,
      "inter": 1236,
      "info": 1237,
      "reg": 1238,
      "ream": 1239,
      "sta": 1240,
      "tho": 1241,
      "christ": 1242,
      "etc": 1243,
      "sell": 1244,
      "ssi": 1245,
      "ope": 1246,
      "ending": 1247,
      "identi": 1248,
      "boo": 1249,
      "cour": 1250,
      "confir": 1251,
      "forward": 1252,
      "winner": 1253,
      "whatever": 1254,
      "rental": 1255,
      "fix": 1256,
      "type": 1257,
      "carlos": 1258,
      "isnt": 1259,
      "dating": 1260,
      "lucky": 1261,
      "understand": 1262,
      "rcvd": 1263,
      "fancy": 1264,
      "expires": 1265,
      "redee": 1266,
      "choose": 1267,
      "ade": 1268,
      "bout": 1269,
      "bath": 1270,
      "cti": 1271,
      "dru": 1272,
      "ext": 1273,
      "fro": 1274,
      "gone": 1275,
      "ici": 1276,
      "pet": 1277,
      "sma": 1278,
      "was": 1279,
      "û_": 1280,
      "inform": 1281,
      "enna": 1282,
      "atulation": 1283,
      "sea": 1284,
      "lier": 1285,
      "teach": 1286,
      "cell": 1287,
      "urday": 1288,
      "ticket": 1289,
      "uncle": 1290,
      "unredee": 1291,
      "toy": 1292,
      "anytime": 1293,
      "least": 1294,
      "lovely": 1295,
      "muz": 1296,
      "sort": 1297,
      "mobileupd": 1298,
      "bud": 1299,
      "friday": 1300,
      "exam": 1301,
      "compu": 1302,
      "frm": 1303,
      "fier": 1304,
      "follow": 1305,
      "college": 1306,
      "smth": 1307,
      "party": 1308,
      "boytoy": 1309,
      "corder": 1310,
      "saturday": 1311,
      "happened": 1312,
      "crazy": 1313,
      "decided": 1314,
      "surpri": 1315,
      "congratulation": 1316,
      "welcome": 1317,
      "identifier": 1318,
      "drug": 1319,
      "unredeemed": 1320,
      "ace": 1321,
      "bal": 1322,
      "bri": 1323,
      "bday": 1324,
      "cro": 1325,
      "dnt": 1326,
      "gar": 1327,
      "gsuite": 1328,
      "hgsuite": 1329,
      "ise": 1330,
      "ned": 1331,
      "nope": 1332,
      "pho": 1333,
      "sou": 1334,
      "inte": 1335,
      "store": 1336,
      "ated": 1337,
      "chenna": 1338,
      "shi": 1339,
      "short": 1340,
      "ssed": 1341,
      "cept": 1342,
      "deal": 1343,
      "deci": 1344,
      "oking": 1345,
      "hee": 1346,
      "add": 1347,
      "more": 1348,
      "most": 1349,
      "sol": 1350,
      "ately": 1351,
      "goodmorning": 1352,
      "pix": 1353,
      "peri": 1354,
      "finally": 1355,
      "couk": 1356,
      "project": 1357,
      "term": 1358,
      "conne": 1359,
      "rowwj": 1360,
      "youve": 1361,
      "outside": 1362,
      "pretty": 1363,
      "lands": 1364,
      "sony": 1365,
      "sunday": 1366,
      "camcorder": 1367,
      "correct": 1368,
      "sky": 1369,
      "frnds": 1370,
      "fucking": 1371,
      "clean": 1372,
      "return": 1373,
      "oredi": 1374,
      "darlin": 1375,
      "wrong": 1376,
      "wonderful": 1377,
      "pleas": 1378,
      "blue": 1379,
      "limited": 1380,
      "course": 1381,
      "hgsuitelands": 1382,
      "interest": 1383,
      "chennai": 1384,
      "rowwjhl": 1385,
      "are": 1386,
      "ago": 1387,
      "bl": 1388,
      "fing": 1389,
      "fill": 1390,
      "fight": 1391,
      "father": 1392,
      "foot": 1393,
      "gry": 1394,
      "hh": 1395,
      "icult": 1396,
      "pen": 1397,
      "ply": 1398,
      "sday": 1399,
      "uu": 1400,
      "vod": 1401,
      "ating": 1402,
      "thin": 1403,
      "meant": 1404,
      "oun": 1405,
      "case": 1406,
      "comm": 1407,
      "log": 1408,
      "shu": 1409,
      "lice": 1410,
      "urb": 1411,
      "tired": 1412,
      "uni": 1413,
      "unlimited": 1414,
      "motor": 1415,
      "mah": 1416,
      "main": 1417,
      "rock": 1418,
      "ldn": 1419,
      "fren": 1420,
      "possi": 1421,
      "freemsg": 1422,
      "wise": 1423,
      "sava": 1424,
      "seeing": 1425,
      "happiness": 1426,
      "reading": 1427,
      "fav": 1428,
      "telling": 1429,
      "youll": 1430,
      "grin": 1431,
      "wkly": 1432,
      "mrng": 1433,
      "mark": 1434,
      "march": 1435,
      "earlier": 1436,
      "park": 1437,
      "åõt": 1438,
      "suppo": 1439,
      "support": 1440,
      "hungry": 1441,
      "whole": 1442,
      "difficult": 1443,
      "murde": 1444,
      "confirm": 1445,
      "computer": 1446,
      "savamob": 1447,
      "area": 1448,
      "bin": 1449,
      "cr": 1450,
      "clo": 1451,
      "eg": 1452,
      "fer": 1453,
      "fli": 1454,
      "ged": 1455,
      "hn": 1456,
      "ig": 1457,
      "ka": 1458,
      "lk": 1459,
      "lvy": 1460,
      "of": 1461,
      "pend": 1462,
      "pas": 1463,
      "ption": 1464,
      "sla": 1465,
      "turn": 1466,
      "wt": 1467,
      "will": 1468,
      "xy": 1469,
      "yal": 1470,
      "ût": 1471,
      "inst": 1472,
      "resu": 1473,
      "reward": 1474,
      "lla": 1475,
      "ane": 1476,
      "stup": 1477,
      "this": 1478,
      "almost": 1479,
      "seen": 1480,
      "cover": 1481,
      "comin": 1482,
      "vey": 1483,
      "lost": 1484,
      "loved": 1485,
      "liment": 1486,
      "ssu": 1487,
      "tered": 1488,
      "deep": 1489,
      "near": 1490,
      "moment": 1491,
      "gest": 1492,
      "ctor": 1493,
      "felt": 1494,
      "diffe": 1495,
      "tain": 1496,
      "gure": 1497,
      "txts": 1498,
      "wats": 1499,
      "couple": 1500,
      "promi": 1501,
      "john": 1502,
      "door": 1503,
      "acc": 1504,
      "acti": 1505,
      "compliment": 1506,
      "mayb": 1507,
      "figure": 1508,
      "pray": 1509,
      "talking": 1510,
      "kick": 1511,
      "within": 1512,
      "view": 1513,
      "invited": 1514,
      "rence": 1515,
      "single": 1516,
      "gym": 1517,
      "voice": 1518,
      "hmmm": 1519,
      "india": 1520,
      "bslvy": 1521,
      "currently": 1522,
      "black": 1523,
      "valued": 1524,
      "film": 1525,
      "catch": 1526,
      "reveal": 1527,
      "extra": 1528,
      "wasnt": 1529,
      "balance": 1530,
      "photo": 1531,
      "motorola": 1532,
      "stupid": 1533,
      "bslvyl": 1534,
      "cc": 1535,
      "cs": 1536,
      "eh": 1537,
      "eur": 1538,
      "eye": 1539,
      "emp": 1540,
      "fall": 1541,
      "gay": 1542,
      "gla": 1543,
      "hy": 1544,
      "her": 1545,
      "honey": 1546,
      "ken": 1547,
      "kate": 1548,
      "knew": 1549,
      "link": 1550,
      "mer": 1551,
      "py": 1552,
      "pow": 1553,
      "page": 1554,
      "rand": 1555,
      "sal": 1556,
      "war": 1557,
      "wow": 1558,
      "regi": 1559,
      "lli": 1560,
      "std": 1561,
      "ative": 1562,
      "met": 1563,
      "mester": 1564,
      "ali": 1565,
      "semester": 1566,
      "sho": 1567,
      "lie": 1568,
      "lish": 1569,
      "lick": 1570,
      "depend": 1571,
      "ops": 1572,
      "lapt": 1573,
      "heard": 1574,
      "ider": 1575,
      "road": 1576,
      "ball": 1577,
      "hosp": 1578,
      "poor": 1579,
      "sport": 1580,
      "via": 1581,
      "times": 1582,
      "leaf": 1583,
      "safe": 1584,
      "sending": 1585,
      "dai": 1586,
      "sign": 1587,
      "fact": 1588,
      "askd": 1589,
      "oooo": 1590,
      "scream": 1591,
      "cheer": 1592,
      "pect": 1593,
      "ampm": 1594,
      "wana": 1595,
      "they": 1596,
      "picking": 1597,
      "monday": 1598,
      "ipod": 1599,
      "shower": 1600,
      "swing": 1601,
      "truth": 1602,
      "charged": 1603,
      "nyt": 1604,
      "discount": 1605,
      "darren": 1606,
      "inclu": 1607,
      "fully": 1608,
      "tune": 1609,
      "stock": 1610,
      "wwq": 1611,
      "disturb": 1612,
      "stake": 1613,
      "christmas": 1614,
      "pete": 1615,
      "small": 1616,
      "information": 1617,
      "surprise": 1618,
      "possible": 1619,
      "supposed": 1620,
      "promise": 1621,
      "complimentary": 1622,
      "laptop": 1623,
      "hospital": 1624,
      "av": 1625,
      "bcoz": 1626,
      "cation": 1627,
      "cance": 1628,
      "dd": 1629,
      "dan": 1630,
      "dent": 1631,
      "fet": 1632,
      "fit": 1633,
      "fic": 1634,
      "iû": 1635,
      "ize": 1636,
      "ker": 1637,
      "ler": 1638,
      "ming": 1639,
      "nit": 1640,
      "prep": 1641,
      "rt": 1642,
      "round": 1643,
      "rply": 1644,
      "ught": 1645,
      "uation": 1646,
      "wu": 1647,
      "wine": 1648,
      "warm": 1649,
      "wcn": 1650,
      "zed": 1651,
      "resent": 1652,
      "request": 1653,
      "remove": 1654,
      "eric": 1655,
      "entered": 1656,
      "arca": 1657,
      "then": 1658,
      "orch": 1659,
      "chin": 1660,
      "ala": 1661,
      "ality": 1662,
      "loan": 1663,
      "lova": 1664,
      "ssy": 1665,
      "cele": 1666,
      "calloptout": 1667,
      "lady": 1668,
      "wear": 1669,
      "has": 1670,
      "gettin": 1671,
      "ident": 1672,
      "hoo": 1673,
      "asap": 1674,
      "super": 1675,
      "summ": 1676,
      "police": 1677,
      "usf": 1678,
      "using": 1679,
      "wap": 1680,
      "sale": 1681,
      "save": 1682,
      "not": 1683,
      "txting": 1684,
      "water": 1685,
      "somewhere": 1686,
      "somebody": 1687,
      "cute": 1688,
      "joke": 1689,
      "quick": 1690,
      "convey": 1691,
      "pack": 1692,
      "expect": 1693,
      "asking": 1694,
      "doin": 1695,
      "dogging": 1696,
      "mmm": 1697,
      "what": 1698,
      "giving": 1699,
      "woke": 1700,
      "checking": 1701,
      "hui": 1702,
      "booked": 1703,
      "crave": 1704,
      "åõs": 1705,
      "blood": 1706,
      "whenever": 1707,
      "slowly": 1708,
      "fantasy": 1709,
      "silent": 1710,
      "abiola": 1711,
      "idea": 1712,
      "hmv": 1713,
      "orchard": 1714,
      "lovable": 1715,
      "ale": 1716,
      "aha": 1717,
      "apart": 1718,
      "bx": 1719,
      "ben": 1720,
      "bur": 1721,
      "bid": 1722,
      "clos": 1723,
      "flow": 1724,
      "gre": 1725,
      "hw": 1726,
      "mn": 1727,
      "mand": 1728,
      "nu": 1729,
      "oops": 1730,
      "pan": 1731,
      "rd": 1732,
      "ran": 1733,
      "rit": 1734,
      "tat": 1735,
      "tim": 1736,
      "vill": 1737,
      "yi": 1738,
      "zing": 1739,
      "inion": 1740,
      "ref": 1741,
      "reci": 1742,
      "recent": 1743,
      "arr": 1744,
      "arri": 1745,
      "thn": 1746,
      "thur": 1747,
      "edu": 1748,
      "ought": 1749,
      "etoo": 1750,
      "copy": 1751,
      "velo": 1752,
      "logo": 1753,
      "shine": 1754,
      "immedi": 1755,
      "tea": 1756,
      "opinion": 1757,
      "tic": 1758,
      "hesh": 1759,
      "adv": 1760,
      "admi": 1761,
      "west": 1762,
      "ham": 1763,
      "ross": 1764,
      "ntt": 1765,
      "bak": 1766,
      "hol": 1767,
      "mistake": 1768,
      "worried": 1769,
      "feb": 1770,
      "ference": 1771,
      "sup": 1772,
      "suck": 1773,
      "yep": 1774,
      "irt": 1775,
      "dig": 1776,
      "disc": 1777,
      "spend": 1778,
      "space": 1779,
      "nah": 1780,
      "noti": 1781,
      "nobody": 1782,
      "represent": 1783,
      "sick": 1784,
      "cup": 1785,
      "stoptxt": 1786,
      "que": 1787,
      "quo": 1788,
      "cons": 1789,
      "exact": 1790,
      "cial": 1791,
      "spect": 1792,
      "dog": 1793,
      "doctor": 1794,
      "hoping": 1795,
      "access": 1796,
      "across": 1797,
      "cheap": 1798,
      "gap": 1799,
      "gave": 1800,
      "file": 1801,
      "tonite": 1802,
      "custcare": 1803,
      "wishing": 1804,
      "btnational": 1805,
      "just": 1806,
      "sitting": 1807,
      "situation": 1808,
      "trust": 1809,
      "otherwise": 1810,
      "pmt": 1811,
      "reached": 1812,
      "write": 1813,
      "tues": 1814,
      "trans": 1815,
      "england": 1816,
      "normal": 1817,
      "bluetoo": 1818,
      "callertune": 1819,
      "bathe": 1820,
      "astic": 1821,
      "gbp": 1822,
      "practi": 1823,
      "fantastic": 1824,
      "energy": 1825,
      "regard": 1826,
      "fixed": 1827,
      "different": 1828,
      "empty": 1829,
      "glad": 1830,
      "power": 1831,
      "random": 1832,
      "wcnxx": 1833,
      "summer": 1834,
      "immediately": 1835,
      "admirer": 1836,
      "representative": 1837,
      "bluetooth": 1838,
      "ave": 1839,
      "aun": 1840,
      "apo": 1841,
      "aint": 1842,
      "awaiting": 1843,
      "ague": 1844,
      "bcm": 1845,
      "cst": 1846,
      "cri": 1847,
      "creat": 1848,
      "city": 1849,
      "egg": 1850,
      "especially": 1851,
      "fl": 1852,
      "fat": 1853,
      "flight": 1854,
      "gen": 1855,
      "greet": 1856,
      "hin": 1857,
      "igh": 1858,
      "jst": 1859,
      "jor": 1860,
      "kan": 1861,
      "lr": 1862,
      "mb": 1863,
      "mit": 1864,
      "none": 1865,
      "noun": 1866,
      "ob": 1867,
      "pc": 1868,
      "pop": 1869,
      "pwk": 1870,
      "ray": 1871,
      "sli": 1872,
      "tn": 1873,
      "ture": 1874,
      "vr": 1875,
      "vity": 1876,
      "vary": 1877,
      "wy": 1878,
      "whi": 1879,
      "wom": 1880,
      "ûò": 1881,
      "recor": 1882,
      "remind": 1883,
      "reference": 1884,
      "ond": 1885,
      "street": 1886,
      "att": 1887,
      "atar": 1888,
      "tht": 1889,
      "meh": 1890,
      "ori": 1891,
      "lem": 1892,
      "les": 1893,
      "ley": 1894,
      "chang": 1895,
      "itu": 1896,
      "vel": 1897,
      "loyal": 1898,
      "lion": 1899,
      "lift": 1900,
      "cement": 1901,
      "urself": 1902,
      "dead": 1903,
      "defin": 1904,
      "delive": 1905,
      "calls": 1906,
      "oken": 1907,
      "lax": 1908,
      "lazy": 1909,
      "unless": 1910,
      "hea": 1911,
      "here": 1912,
      "adi": 1913,
      "weed": 1914,
      "moon": 1915,
      "mode": 1916,
      "sofa": 1917,
      "rose": 1918,
      "basi": 1919,
      "hotel": 1920,
      "asing": 1921,
      "fection": 1922,
      "bos": 1923,
      "bold": 1924,
      "ract": 1925,
      "mpa": 1926,
      "tampa": 1927,
      "user": 1928,
      "goodnight": 1929,
      "wah": 1930,
      "pie": 1931,
      "pict": 1932,
      "hiya": 1933,
      "cuse": 1934,
      "phon": 1935,
      "seems": 1936,
      "thinkin": 1937,
      "buck": 1938,
      "excuse": 1939,
      "doll": 1940,
      "accept": 1941,
      "letter": 1942,
      "student": 1943,
      "colleague": 1944,
      "appreci": 1945,
      "buying": 1946,
      "starting": 1947,
      "mrt": 1948,
      "charity": 1949,
      "sunshine": 1950,
      "meaning": 1951,
      "others": 1952,
      "reaching": 1953,
      "subscription": 1954,
      "brings": 1955,
      "wondering": 1956,
      "staying": 1957,
      "kinda": 1958,
      "tran": 1959,
      "trouble": 1960,
      "sense": 1961,
      "indian": 1962,
      "style": 1963,
      "password": 1964,
      "studying": 1965,
      "flag": 1966,
      "seriously": 1967,
      "forever": 1968,
      "usual": 1969,
      "completely": 1970,
      "forwarded": 1971,
      "cellent": 1972,
      "decide": 1973,
      "frens": 1974,
      "result": 1975,
      "merry": 1976,
      "digital": 1977,
      "record": 1978,
      "awake": 1979,
      "bun": 1980,
      "bha": 1981,
      "band": 1982,
      "cru": 1983,
      "ccess": 1984,
      "dry": 1985,
      "dvd": 1986,
      "fly": 1987,
      "har": 1988,
      "hone": 1989,
      "hang": 1990,
      "ib": 1991,
      "ian": 1992,
      "ife": 1993,
      "iåõ": 1994,
      "issu": 1995,
      "kb": 1996,
      "lity": 1997,
      "oc": 1998,
      "oth": 1999,
      "pin": 2000,
      "pat": 2001,
      "por": 2002,
      "rreveal": 2003,
      "spl": 2004,
      "twi": 2005,
      "tough": 2006,
      "ufind": 2007,
      "uary": 2008,
      "vin": 2009,
      "vir": 2010,
      "vom": 2011,
      "wall": 2012,
      "yun": 2013,
      "åpm": 2014,
      "ûs": 2015,
      "rely": 2016,
      "ers": 2017,
      "ert": 2018,
      "ana": 2019,
      "ara": 2020,
      "arn": 2021,
      "argu": 2022,
      "throw": 2023,
      "thru": 2024,
      "orge": 2025,
      "lead": 2026,
      "lection": 2027,
      "cap": 2028,
      "cali": 2029,
      "camp": 2030,
      "goto": 2031,
      "chan": 2032,
      "chill": 2033,
      "cook": 2034,
      "coffe": 2035,
      "itled": 2036,
      "shan": 2037,
      "should": 2038,
      "shirt": 2039,
      "lic": 2040,
      "libr": 2041,
      "imag": 2042,
      "oward": 2043,
      "tear": 2044,
      "rible": 2045,
      "entitled": 2046,
      "nel": 2047,
      "ness": 2048,
      "nesday": 2049,
      "unity": 2050,
      "hel": 2051,
      "weir": 2052,
      "weight": 2053,
      "hai": 2054,
      "mood": 2055,
      "mother": 2056,
      "anta": 2057,
      "bag": 2058,
      "become": 2059,
      "sus": 2060,
      "success": 2061,
      "bother": 2062,
      "pot": 2063,
      "freephone": 2064,
      "mins": 2065,
      "table": 2066,
      "spent": 2067,
      "viously": 2068,
      "wiv": 2069,
      "anymore": 2070,
      "umma": 2071,
      "bless": 2072,
      "pizz": 2073,
      "sometimes": 2074,
      "high": 2075,
      "workin": 2076,
      "future": 2077,
      "omg": 2078,
      "buzz": 2079,
      "lux": 2080,
      "fault": 2081,
      "exc": 2082,
      "experi": 2083,
      "replying": 2084,
      "mmmm": 2085,
      "youd": 2086,
      "slept": 2087,
      "yahoo": 2088,
      "gentle": 2089,
      "offici": 2090,
      "present": 2091,
      "picked": 2092,
      "however": 2093,
      "partner": 2094,
      "planning": 2095,
      "married": 2096,
      "realy": 2097,
      "eating": 2098,
      "roommate": 2099,
      "recei": 2100,
      "niger": 2101,
      "funny": 2102,
      "matter": 2103,
      "specialcall": 2104,
      "longer": 2105,
      "clear": 2106,
      "paying": 2107,
      "track": 2108,
      "stem": 2109,
      "stered": 2110,
      "bedroom": 2111,
      "wheres": 2112,
      "polys": 2113,
      "brand": 2114,
      "daddy": 2115,
      "facebook": 2116,
      "joined": 2117,
      "condition": 2118,
      "strong": 2119,
      "wwx": 2120,
      "wednesday": 2121,
      "medical": 2122,
      "training": 2123,
      "maxim": 2124,
      "malar": 2125,
      "cinema": 2126,
      "january": 2127,
      "smscom": 2128,
      "from": 2129,
      "south": 2130,
      "connect": 2131,
      "interested": 2132,
      "finger": 2133,
      "slave": 2134,
      "euro": 2135,
      "registered": 2136,
      "theyre": 2137,
      "cancel": 2138,
      "alex": 2139,
      "apartment": 2140,
      "consider": 2141,
      "btnationalrate": 2142,
      "pmtmsg": 2143,
      "tuesday": 2144,
      "woman": 2145,
      "changed": 2146,
      "definite": 2147,
      "picture": 2148,
      "issue": 2149,
      "coffee": 2150,
      "library": 2151,
      "pizza": 2152,
      "experience": 2153,
      "nigeria": 2154,
      "aff": 2155,
      "aper": 2156,
      "ache": 2157,
      "arent": 2158,
      "ahead": 2159,
      "bye": 2160,
      "breat": 2161,
      "brain": 2162,
      "cing": 2163,
      "ced": 2164,
      "click": 2165,
      "dge": 2166,
      "ess": 2167,
      "ela": 2168,
      "eas": 2169,
      "gm": 2170,
      "if": 2171,
      "ii": 2172,
      "iled": 2173,
      "kill": 2174,
      "kall": 2175,
      "lon": 2176,
      "lou": 2177,
      "lma": 2178,
      "lus": 2179,
      "ml": 2180,
      "nal": 2181,
      "nim": 2182,
      "nxt": 2183,
      "over": 2184,
      "pod": 2185,
      "rat": 2186,
      "rum": 2187,
      "rather": 2188,
      "sight": 2189,
      "sive": 2190,
      "tit": 2191,
      "toward": 2192,
      "ull": 2193,
      "uve": 2194,
      "vl": 2195,
      "vry": 2196,
      "wb": 2197,
      "wn": 2198,
      "wer": 2199,
      "wun": 2200,
      "xh": 2201,
      "ym": 2202,
      "yah": 2203,
      "ydon": 2204,
      "zit": 2205,
      "inste": 2206,
      "insur": 2207,
      "inside": 2208,
      "rek": 2209,
      "reme": 2210,
      "remain": 2211,
      "respect": 2212,
      "relax": 2213,
      "oni": 2214,
      "onto": 2215,
      "erife": 2216,
      "announ": 2217,
      "stre": 2218,
      "stri": 2219,
      "station": 2220,
      "mei": 2221,
      "learn": 2222,
      "oup": 2223,
      "ount": 2224,
      "cared": 2225,
      "alrite": 2226,
      "cold": 2227,
      "login": 2228,
      "location": 2229,
      "shd": 2230,
      "shor": 2231,
      "liked": 2232,
      "sson": 2233,
      "ssss": 2234,
      "imma": 2235,
      "kept": 2236,
      "teen": 2237,
      "tech": 2238,
      "team": 2239,
      "riage": 2240,
      "dest": 2241,
      "desp": 2242,
      "cally": 2243,
      "cking": 2244,
      "ney": 2245,
      "necess": 2246,
      "unsub": 2247,
      "ada": 2248,
      "tom": 2249,
      "weak": 2250,
      "weather": 2251,
      "ended": 2252,
      "model": 2253,
      "maid": 2254,
      "antly": 2255,
      "role": 2256,
      "gee": 2257,
      "geee": 2258,
      "lttime": 2259,
      "pper": 2260,
      "host": 2261,
      "holla": 2262,
      "mira": 2263,
      "beer": 2264,
      "behin": 2265,
      "worse": 2266,
      "sug": 2267,
      "bot": 2268,
      "yest": 2269,
      "pos": 2270,
      "pose": 2271,
      "rak": 2272,
      "irrit": 2273,
      "freefone": 2274,
      "dict": 2275,
      "spree": 2276,
      "vikk": 2277,
      "ware": 2278,
      "waste": 2279,
      "naked": 2280,
      "naught": 2281,
      "ffff": 2282,
      "sigh": 2283,
      "cuz": 2284,
      "sory": 2285,
      "process": 2286,
      "tery": 2287,
      "mobiles": 2288,
      "omw": 2289,
      "quality": 2290,
      "bugi": 2291,
      "past": 2292,
      "paid": 2293,
      "excellent": 2294,
      "speed": 2295,
      "doc": 2296,
      "your": 2297,
      "messag": 2298,
      "acter": 2299,
      "wina": 2300,
      "wind": 2301,
      "grand": 2302,
      "group": 2303,
      "theat": 2304,
      "theart": 2305,
      "cashin": 2306,
      "cashbalance": 2307,
      "showing": 2308,
      "print": 2309,
      "planned": 2310,
      "marriage": 2311,
      "country": 2312,
      "tcs": 2313,
      "yoga": 2314,
      "character": 2315,
      "costa": 2316,
      "eatin": 2317,
      "skxh": 2318,
      "ggy": 2319,
      "receip": 2320,
      "affection": 2321,
      "bird": 2322,
      "happens": 2323,
      "happening": 2324,
      "settle": 2325,
      "housemaid": 2326,
      "darling": 2327,
      "hurry": 2328,
      "izzit": 2329,
      "tenerife": 2330,
      "running": 2331,
      "walking": 2332,
      "share": 2333,
      "ential": 2334,
      "holding": 2335,
      "gram": 2336,
      "battery": 2337,
      "torch": 2338,
      "system": 2339,
      "horny": 2340,
      "menu": 2341,
      "midnight": 2342,
      "chase": 2343,
      "choice": 2344,
      "internet": 2345,
      "following": 2346,
      "croydon": 2347,
      "connection": 2348,
      "pleasure": 2349,
      "hgsuitelandsrowwjhl": 2350,
      "blank": 2351,
      "shuhui": 2352,
      "favour": 2353,
      "murdered": 2354,
      "murderer": 2355,
      "flirt": 2356,
      "accident": 2357,
      "depends": 2358,
      "including": 2359,
      "fetch": 2360,
      "ericsson": 2361,
      "celeb": 2362,
      "flower": 2363,
      "recently": 2364,
      "arrange": 2365,
      "arrive": 2366,
      "thnk": 2367,
      "advance": 2368,
      "notice": 2369,
      "loyalty": 2370,
      "delivered": 2371,
      "heavy": 2372,
      "dollar": 2373,
      "appreciate": 2374,
      "campus": 2375,
      "imagine": 2376,
      "maximize": 2377,
      "malaria": 2378,
      "easi": 2379,
      "title": 2380,
      "towards": 2381,
      "instead": 2382,
      "insurance": 2383,
      "lttimegt": 2384,
      "miracle": 2385,
      "behind": 2386,
      "vikky": 2387,
      "naughty": 2388,
      "bugis": 2389,
      "__": 2390,
      "ain": 2391,
      "aat": 2392,
      "ama": 2393,
      "avo": 2394,
      "bc": 2395,
      "by": 2396,
      "bay": 2397,
      "bow": 2398,
      "bra": 2399,
      "brow": 2400,
      "bought": 2401,
      "cry": 2402,
      "dom": 2403,
      "dint": 2404,
      "eer": 2405,
      "fb": 2406,
      "flo": 2407,
      "five": 2408,
      "flat": 2409,
      "gle": 2410,
      "grow": 2411,
      "gni": 2412,
      "hp": 2413,
      "hs": 2414,
      "han": 2415,
      "hill": 2416,
      "hate": 2417,
      "ire": 2418,
      "ild": 2419,
      "ify": 2420,
      "jen": 2421,
      "jam": 2422,
      "joking": 2423,
      "ky": 2424,
      "lay": 2425,
      "lone": 2426,
      "nv": 2427,
      "non": 2428,
      "nåõt": 2429,
      "nût": 2430,
      "oz": 2431,
      "oint": 2432,
      "ps": 2433,
      "pun": 2434,
      "phi": 2435,
      "qatar": 2436,
      "tb": 2437,
      "tour": 2438,
      "tari": 2439,
      "wnt": 2440,
      "yu": 2441,
      "yay": 2442,
      "za": 2443,
      "åmin": 2444,
      "inch": 2445,
      "infor": 2446,
      "relation": 2447,
      "review": 2448,
      "only": 2449,
      "onsmscom": 2450,
      "ering": 2451,
      "lled": 2452,
      "ston": 2453,
      "sted": 2454,
      "stra": 2455,
      "envelo": 2456,
      "thm": 2457,
      "thy": 2458,
      "thts": 2459,
      "melle": 2460,
      "ory": 2461,
      "leep": 2462,
      "cafe": 2463,
      "goo": 2464,
      "chine": 2465,
      "alert": 2466,
      "coin": 2467,
      "coll": 2468,
      "logi": 2469,
      "local": 2470,
      "lik": 2471,
      "lip": 2472,
      "lied": 2473,
      "tee": 2474,
      "teasing": 2475,
      "ride": 2476,
      "dey": 2477,
      "enty": 2478,
      "ention": 2479,
      "cked": 2480,
      "tick": 2481,
      "tiru": 2482,
      "law": 2483,
      "lace": 2484,
      "lacst": 2485,
      "adult": 2486,
      "toclaim": 2487,
      "hau": 2488,
      "have": 2489,
      "moan": 2490,
      "moved": 2491,
      "moji": 2492,
      "male": 2493,
      "sold": 2494,
      "soft": 2495,
      "iding": 2496,
      "barely": 2497,
      "hook": 2498,
      "vers": 2499,
      "version": 2500,
      "bell": 2501,
      "begin": 2502,
      "plenty": 2503,
      "freak": 2504,
      "sum": 2505,
      "posit": 2506,
      "mptone": 2507,
      "died": 2508,
      "disa": 2509,
      "guide": 2510,
      "vision": 2511,
      "anybody": 2512,
      "sam": 2513,
      "texting": 2514,
      "note": 2515,
      "moral": 2516,
      "xxxxx": 2517,
      "pilate": 2518,
      "report": 2519,
      "replied": 2520,
      "damn": 2521,
      "sipix": 2522,
      "cudd": 2523,
      "pril": 2524,
      "buff": 2525,
      "conf": 2526,
      "ahmad": 2527,
      "amt": 2528,
      "exe": 2529,
      "exp": 2530,
      "except": 2531,
      "expen": 2532,
      "askin": 2533,
      "action": 2534,
      "evng": 2535,
      "leted": 2536,
      "gau": 2537,
      "contract": 2538,
      "fie": 2539,
      "fied": 2540,
      "tyler": 2541,
      "pussy": 2542,
      "manage": 2543,
      "appa": 2544,
      "appro": 2545,
      "howz": 2546,
      "wks": 2547,
      "lookin": 2548,
      "smart": 2549,
      "keeping": 2550,
      "surely": 2551,
      "drun": 2552,
      "marry": 2553,
      "moby": 2554,
      "jue": 2555,
      "personal": 2556,
      "earth": 2557,
      "checked": 2558,
      "sunny": 2559,
      "coståpm": 2560,
      "hug": 2561,
      "gger": 2562,
      "bitch": 2563,
      "due": 2564,
      "afone": 2565,
      "setting": 2566,
      "videop": 2567,
      "wherever": 2568,
      "inclus": 2569,
      "fullonsmscom": 2570,
      "standing": 2571,
      "standard": 2572,
      "putting": 2573,
      "ringtones": 2574,
      "handset": 2575,
      "posted": 2576,
      "aiyo": 2577,
      "aiyah": 2578,
      "centre": 2579,
      "donût": 2580,
      "inviting": 2581,
      "embar": 2582,
      "normptone": 2583,
      "shell": 2584,
      "holder": 2585,
      "bby": 2586,
      "cancer": 2587,
      "armand": 2588,
      "aftr": 2589,
      "simply": 2590,
      "nature": 2591,
      "raining": 2592,
      "directly": 2593,
      "spoke": 2594,
      "ttyl": 2595,
      "listening": 2596,
      "murder": 2597,
      "childish": 2598,
      "thatåõs": 2599,
      "maxmins": 2600,
      "loverboy": 2601,
      "serious": 2602,
      "usually": 2603,
      "fyi": 2604,
      "budget": 2605,
      "buddy": 2606,
      "brilli": 2607,
      "decision": 2608,
      "added": 2609,
      "pleased": 2610,
      "vodafone": 2611,
      "clock": 2612,
      "willing": 2613,
      "activate": 2614,
      "daily": 2615,
      "screaming": 2616,
      "stockport": 2617,
      "kerala": 2618,
      "arcade": 2619,
      "bene": 2620,
      "closed": 2621,
      "timing": 2622,
      "yijue": 2623,
      "exactly": 2624,
      "created": 2625,
      "tncs": 2626,
      "phonic": 2627,
      "vomit": 2628,
      "argument": 2629,
      "exciting": 2630,
      "official": 2631,
      "definitely": 2632,
      "kallis": 2633,
      "london": 2634,
      "lmao": 2635,
      "nimya": 2636,
      "remem": 2637,
      "announcement": 2638,
      "rakhesh": 2639,
      "theatre": 2640,
      "receipt": 2641,
      "aathi": 2642,
      "amazing": 2643,
      "ointment": 2644,
      "tariff": 2645,
      "straight": 2646,
      "envelope": 2647,
      "expensive": 2648,
      "inclusive": 2649,
      "ae": 2650,
      "ami": 2651,
      "aled": 2652,
      "assu": 2653,
      "april": 2654,
      "bf": 2655,
      "bly": 2656,
      "bright": 2657,
      "blow": 2658,
      "bcum": 2659,
      "cbe": 2660,
      "ded": 2661,
      "dir": 2662,
      "dload": 2663,
      "ese": 2664,
      "fish": 2665,
      "fool": 2666,
      "gro": 2667,
      "gnt": 2668,
      "gard": 2669,
      "gam": 2670,
      "gorge": 2671,
      "hv": 2672,
      "ime": 2673,
      "ile": 2674,
      "ient": 2675,
      "ilt": 2676,
      "iam": 2677,
      "ign": 2678,
      "jer": 2679,
      "jas": 2680,
      "ko": 2681,
      "ks": 2682,
      "ku": 2683,
      "ket": 2684,
      "lv": 2685,
      "lan": 2686,
      "mw": 2687,
      "mill": 2688,
      "nq": 2689,
      "nan": 2690,
      "nur": 2691,
      "nic": 2692,
      "ptone": 2693,
      "pong": 2694,
      "rs": 2695,
      "ror": 2696,
      "radi": 2697,
      "sn": 2698,
      "sme": 2699,
      "sna": 2700,
      "site": 2701,
      "squ": 2702,
      "scared": 2703,
      "tt": 2704,
      "tay": 2705,
      "tal": 2706,
      "tun": 2707,
      "ual": 2708,
      "ured": 2709,
      "vet": 2710,
      "vinc": 2711,
      "wet": 2712,
      "xchat": 2713,
      "xpwk": 2714,
      "yer": 2715,
      "yan": 2716,
      "zo": 2717,
      "åwk": 2718,
      "ining": 2719,
      "rem": 2720,
      "reen": 2721,
      "lling": 2722,
      "anth": 2723,
      "anna": 2724,
      "stone": 2725,
      "step": 2726,
      "stic": 2727,
      "stamp": 2728,
      "stick": 2729,
      "enem": 2730,
      "ater": 2731,
      "arrest": 2732,
      "thi": 2733,
      "meal": 2734,
      "oring": 2735,
      "leg": 2736,
      "leon": 2737,
      "outh": 2738,
      "cabin": 2739,
      "caken": 2740,
      "goal": 2741,
      "gold": 2742,
      "cher": 2743,
      "etition": 2744,
      "sess": 2745,
      "season": 2746,
      "seven": 2747,
      "selection": 2748,
      "loo": 2749,
      "loss": 2750,
      "shy": 2751,
      "shah": 2752,
      "living": 2753,
      "cember": 2754,
      "url": 2755,
      "ural": 2756,
      "urgnt": 2757,
      "derek": 2758,
      "december": 2759,
      "opport": 2760,
      "neigh": 2761,
      "laid": 2762,
      "unable": 2763,
      "unsold": 2764,
      "advi": 2765,
      "advice": 2766,
      "toon": 2767,
      "tota": 2768,
      "web": 2769,
      "webs": 2770,
      "map": 2771,
      "master": 2772,
      "mally": 2773,
      "social": 2774,
      "idence": 2775,
      "roman": 2776,
      "pple": 2777,
      "pped": 2778,
      "asleep": 2779,
      "mix": 2780,
      "mile": 2781,
      "bee": 2782,
      "bey": 2783,
      "belly": 2784,
      "suff": 2785,
      "boat": 2786,
      "board": 2787,
      "boston": 2788,
      "yeshe": 2789,
      "pool": 2790,
      "raid": 2791,
      "mpt": 2792,
      "diet": 2793,
      "diction": 2794,
      "mini": 2795,
      "taz": 2796,
      "tage": 2797,
      "vijay": 2798,
      "allow": 2799,
      "allah": 2800,
      "wis": 2801,
      "waking": 2802,
      "saction": 2803,
      "nore": 2804,
      "noline": 2805,
      "uman": 2806,
      "pissed": 2807,
      "somethin": 2808,
      "cud": 2809,
      "prov": 2810,
      "stopped": 2811,
      "berg": 2812,
      "latr": 2813,
      "quit": 2814,
      "build": 2815,
      "const": 2816,
      "concent": 2817,
      "concer": 2818,
      "convinc": 2819,
      "among": 2820,
      "amount": 2821,
      "express": 2822,
      "exhau": 2823,
      "rush": 2824,
      "rude": 2825,
      "asks": 2826,
      "ooo": 2827,
      "mission": 2828,
      "everybody": 2829,
      "meetin": 2830,
      "linerental": 2831,
      "evr": 2832,
      "hopefully": 2833,
      "cheaper": 2834,
      "peace": 2835,
      "why": 2836,
      "white": 2837,
      "gain": 2838,
      "wards": 2839,
      "esca": 2840,
      "gical": 2841,
      "given": 2842,
      "compla": 2843,
      "competition": 2844,
      "fran": 2845,
      "rentl": 2846,
      "themob": 2847,
      "didt": 2848,
      "fif": 2849,
      "push": 2850,
      "appointment": 2851,
      "cartoon": 2852,
      "wouldnt": 2853,
      "intro": 2854,
      "island": 2855,
      "looked": 2856,
      "proper": 2857,
      "playing": 2858,
      "contacted": 2859,
      "mrw": 2860,
      "plane": 2861,
      "planade": 2862,
      "btw": 2863,
      "marrow": 2864,
      "couldnt": 2865,
      "swt": 2866,
      "yogas": 2867,
      "truly": 2868,
      "anger": 2869,
      "chick": 2870,
      "minuts": 2871,
      "satis": 2872,
      "whether": 2873,
      "frndship": 2874,
      "travel": 2875,
      "poboxwwq": 2876,
      "lecture": 2877,
      "wrc": 2878,
      "polyphonic": 2879,
      "broke": 2880,
      "surfing": 2881,
      "videochat": 2882,
      "jesus": 2883,
      "subscriber": 2884,
      "donåõt": 2885,
      "english": 2886,
      "java": 2887,
      "jazz": 2888,
      "itions": 2889,
      "xxxxxxx": 2890,
      "ginal": 2891,
      "jiu": 2892,
      "jith": 2893,
      "italian": 2894,
      "vote": 2895,
      "sheet": 2896,
      "airport": 2897,
      "searching": 2898,
      "current": 2899,
      "prabha": 2900,
      "dropped": 2901,
      "spook": 2902,
      "aaaa": 2903,
      "purchase": 2904,
      "pmsgrcvd": 2905,
      "stylish": 2906,
      "passion": 2907,
      "boring": 2908,
      "horrible": 2909,
      "revealed": 2910,
      "respond": 2911,
      "scot": 2912,
      "score": 2913,
      "interview": 2914,
      "regret": 2915,
      "selling": 2916,
      "boost": 2917,
      "cross": 2918,
      "sonyericsson": 2919,
      "interesting": 2920,
      "fighting": 2921,
      "voda": 2922,
      "ounge": 2923,
      "common": 2924,
      "favor": 2925,
      "ignore": 2926,
      "salary": 2927,
      "iûm": 2928,
      "hasnt": 2929,
      "expecting": 2930,
      "green": 2931,
      "village": 2932,
      "thurs": 2933,
      "thursday": 2934,
      "discus": 2935,
      "quote": 2936,
      "quoting": 2937,
      "bcmwcnxx": 2938,
      "kano": 2939,
      "obviously": 2940,
      "original": 2941,
      "callsåmin": 2942,
      "basically": 2943,
      "piece": 2944,
      "transaction": 2945,
      "hones": 2946,
      "ibh": 2947,
      "iåõm": 2948,
      "porn": 2949,
      "twice": 2950,
      "shouldnt": 2951,
      "blessing": 2952,
      "affair": 2953,
      "stress": 2954,
      "geeee": 2955,
      "hostel": 2956,
      "suggest": 2957,
      "bowl": 2958,
      "eerie": 2959,
      "lonely": 2960,
      "nvm": 2961,
      "informed": 2962,
      "google": 2963,
      "chinese": 2964,
      "videophones": 2965,
      "embara": 2966,
      "brilliant": 2967,
      "gorgeous": 2968,
      "pongal": 2969,
      "enemy": 2970,
      "arrested": 2971,
      "opportunity": 2972,
      "totally": 2973,
      "website": 2974,
      "romantic": 2975,
      "yogasana": 2976,
      "ax": 2977,
      "aer": 2978,
      "ash": 2979,
      "aid": 2980,
      "arer": 2981,
      "ban": 2982,
      "bite": 2983,
      "bru": 2984,
      "bang": 2985,
      "burn": 2986,
      "cre": 2987,
      "cate": 2988,
      "clea": 2989,
      "clar": 2990,
      "cream": 2991,
      "cwwx": 2992,
      "dle": 2993,
      "ea": 2994,
      "ef": 2995,
      "ey": 2996,
      "eca": 2997,
      "effe": 2998,
      "east": 2999,
      "fra": 3000,
      "four": 3001,
      "fera": 3002,
      "fml": 3003,
      "gme": 3004,
      "gim": 3005,
      "gree": 3006,
      "gener": 3007,
      "hen": 3008,
      "hus": 3009,
      "iq": 3010,
      "ibi": 3011,
      "igent": 3012,
      "iest": 3013,
      "iot": 3014,
      "jour": 3015,
      "jada": 3016,
      "kar": 3017,
      "kit": 3018,
      "kus": 3019,
      "kno": 3020,
      "kts": 3021,
      "lane": 3022,
      "lanta": 3023,
      "mun": 3024,
      "mite": 3025,
      "nb": 3026,
      "nr": 3027,
      "ov": 3028,
      "ock": 3029,
      "oft": 3030,
      "pg": 3031,
      "pon": 3032,
      "qx": 3033,
      "rw": 3034,
      "ron": 3035,
      "rone": 3036,
      "snt": 3037,
      "sour": 3038,
      "sarca": 3039,
      "santa": 3040,
      "tm": 3041,
      "tre": 3042,
      "ted": 3043,
      "tkts": 3044,
      "ut": 3045,
      "uz": 3046,
      "vat": 3047,
      "vid": 3048,
      "vtin": 3049,
      "wd": 3050,
      "wal": 3051,
      "yum": 3052,
      "åó": 3053,
      "åper": 3054,
      "inu": 3055,
      "inde": 3056,
      "intell": 3057,
      "infer": 3058,
      "rele": 3059,
      "reco": 3060,
      "renew": 3061,
      "requ": 3062,
      "reser": 3063,
      "research": 3064,
      "ero": 3065,
      "anti": 3066,
      "anni": 3067,
      "stro": 3068,
      "stitu": 3069,
      "eno": 3070,
      "enu": 3071,
      "atta": 3072,
      "atlanta": 3073,
      "arun": 3074,
      "argue": 3075,
      "arng": 3076,
      "thre": 3077,
      "thro": 3078,
      "thas": 3079,
      "thes": 3080,
      "three": 3081,
      "oru": 3082,
      "orde": 3083,
      "legal": 3084,
      "aya": 3085,
      "ouri": 3086,
      "cake": 3087,
      "goss": 3088,
      "godi": 3089,
      "govtin": 3090,
      "chu": 3091,
      "chur": 3092,
      "chall": 3093,
      "along": 3094,
      "eta": 3095,
      "ses": 3096,
      "sept": 3097,
      "cock": 3098,
      "comu": 3099,
      "cooking": 3100,
      "itch": 3101,
      "itpls": 3102,
      "lovd": 3103,
      "sher": 3104,
      "shed": 3105,
      "shld": 3106,
      "shel": 3107,
      "shout": 3108,
      "shoot": 3109,
      "ima": 3110,
      "imat": 3111,
      "impro": 3112,
      "impress": 3113,
      "tele": 3114,
      "ury": 3115,
      "def": 3116,
      "dem": 3117,
      "develo": 3118,
      "deleted": 3119,
      "dayno": 3120,
      "tive": 3121,
      "tihs": 3122,
      "neck": 3123,
      "lab": 3124,
      "unde": 3125,
      "unton": 3126,
      "height": 3127,
      "addict": 3128,
      "toa": 3129,
      "toda": 3130,
      "weû": 3131,
      "weve": 3132,
      "weigh": 3133,
      "hamas": 3134,
      "mod": 3135,
      "modu": 3136,
      "mac": 3137,
      "mag": 3138,
      "mass": 3139,
      "maga": 3140,
      "machan": 3141,
      "magical": 3142,
      "sore": 3143,
      "solu": 3144,
      "idk": 3145,
      "idiot": 3146,
      "rol": 3147,
      "ros": 3148,
      "roger": 3149,
      "ntwk": 3150,
      "bahamas": 3151,
      "ppl": 3152,
      "ppy": 3153,
      "pping": 3154,
      "verify": 3155,
      "ased": 3156,
      "asure": 3157,
      "mis": 3158,
      "milk": 3159,
      "beg": 3160,
      "bear": 3161,
      "befor": 3162,
      "becoz": 3163,
      "belovd": 3164,
      "fee": 3165,
      "fect": 3166,
      "fever": 3167,
      "freed": 3168,
      "sugar": 3169,
      "pocket": 3170,
      "raj": 3171,
      "rage": 3172,
      "rally": 3173,
      "raise": 3174,
      "tax": 3175,
      "takin": 3176,
      "taken": 3177,
      "taunton": 3178,
      "spty": 3179,
      "spending": 3180,
      "spoken": 3181,
      "vio": 3182,
      "vip": 3183,
      "vious": 3184,
      "comedy": 3185,
      "biola": 3186,
      "bility": 3187,
      "bishan": 3188,
      "alla": 3189,
      "anyways": 3190,
      "sake": 3191,
      "sack": 3192,
      "saved": 3193,
      "wanting": 3194,
      "texted": 3195,
      "textbuddy": 3196,
      "nog": 3197,
      "morn": 3198,
      "moro": 3199,
      "morow": 3200,
      "morro": 3201,
      "umb": 3202,
      "txtin": 3203,
      "txtauction": 3204,
      "pig": 3205,
      "perfect": 3206,
      "dare": 3207,
      "hip": 3208,
      "sis": 3209,
      "six": 3210,
      "promo": 3211,
      "profit": 3212,
      "seem": 3213,
      "seemed": 3214,
      "needed": 3215,
      "berry": 3216,
      "lated": 3217,
      "happend": 3218,
      "omberg": 3219,
      "lucoz": 3220,
      "faster": 3221,
      "expla": 3222,
      "waitin": 3223,
      "rub": 3224,
      "rule": 3225,
      "ruary": 3226,
      "ruthi": 3227,
      "thangam": 3228,
      "spee": 3229,
      "spell": 3230,
      "doing": 3231,
      "forum": 3232,
      "format": 3233,
      "ilgme": 3234,
      "accor": 3235,
      "youclean": 3236,
      "upto": 3237,
      "upset": 3238,
      "upload": 3239,
      "event": 3240,
      "evry": 3241,
      "screen": 3242,
      "messageits": 3243,
      "outta": 3244,
      "ics": 3245,
      "mental": 3246,
      "grl": 3247,
      "esplanade": 3248,
      "giv": 3249,
      "career": 3250,
      "careful": 3251,
      "carefully": 3252,
      "front": 3253,
      "gently": 3254,
      "premi": 3255,
      "prescri": 3256,
      "prefera": 3257,
      "theory": 3258,
      "fire": 3259,
      "mono": 3260,
      "monkey": 3261,
      "wood": 3262,
      "appt": 3263,
      "apple": 3264,
      "carry": 3265,
      "ipad": 3266,
      "havnt": 3267,
      "intention": 3268,
      "wkend": 3269,
      "played": 3270,
      "hella": 3271,
      "auto": 3272,
      "sooner": 3273,
      "swim": 3274,
      "mobsmo": 3275,
      "june": 3276,
      "akhesh": 3277,
      "personality": 3278,
      "realize": 3279,
      "meanwhi": 3280,
      "kkhow": 3281,
      "nyc": 3282,
      "netcoll": 3283,
      "skill": 3284,
      "skilgme": 3285,
      "gged": 3286,
      "schedu": 3287,
      "largest": 3288,
      "nick": 3289,
      "nical": 3290,
      "yetunde": 3291,
      "dub": 3292,
      "matri": 3293,
      "mathe": 3294,
      "matured": 3295,
      "fuckin": 3296,
      "afraid": 3297,
      "steam": 3298,
      "drivin": 3299,
      "poboxhp": 3300,
      "membership": 3301,
      "enjoyed": 3302,
      "dark": 3303,
      "brit": 3304,
      "brought": 3305,
      "broad": 3306,
      "incre": 3307,
      "sura": 3308,
      "biggest": 3309,
      "jess": 3310,
      "subscribed": 3311,
      "bringing": 3312,
      "paris": 3313,
      "tuition": 3314,
      "losing": 3315,
      "losop": 3316,
      "handle": 3317,
      "tenant": 3318,
      "aiya": 3319,
      "aiyar": 3320,
      "center": 3321,
      "supply": 3322,
      "bloke": 3323,
      "bloody": 3324,
      "bloomberg": 3325,
      "temple": 3326,
      "jack": 3327,
      "mummy": 3328,
      "mumtaz": 3329,
      "shame": 3330,
      "dresser": 3331,
      "answering": 3332,
      "hunny": 3333,
      "normally": 3334,
      "credited": 3335,
      "whens": 3336,
      "gravity": 3337,
      "arily": 3338,
      "total": 3339,
      "wedding": 3340,
      "public": 3341,
      "natural": 3342,
      "rcv": 3343,
      "value": 3344,
      "valuable": 3345,
      "purity": 3346,
      "purpose": 3347,
      "passed": 3348,
      "born": 3349,
      "ansr": 3350,
      "series": 3351,
      "kidz": 3352,
      "responsi": 3353,
      "laughing": 3354,
      "booty": 3355,
      "understanding": 3356,
      "bathing": 3357,
      "fromm": 3358,
      "followed": 3359,
      "surprised": 3360,
      "shortly": 3361,
      "solve": 3362,
      "skype": 3363,
      "cleaning": 3364,
      "filled": 3365,
      "football": 3366,
      "penny": 3367,
      "maintain": 3368,
      "market": 3369,
      "closer": 3370,
      "lkpoboxhp": 3371,
      "wtf": 3372,
      "install": 3373,
      "activity": 3374,
      "blackberry": 3375,
      "include": 3376,
      "fication": 3377,
      "iûll": 3378,
      "prepare": 3379,
      "celebr": 3380,
      "wearing": 3381,
      "package": 3382,
      "bloodsend": 3383,
      "manda": 3384,
      "refused": 3385,
      "hols": 3386,
      "february": 3387,
      "queen": 3388,
      "transfer": 3389,
      "practice": 3390,
      "aunt": 3391,
      "aunty": 3392,
      "apologi": 3393,
      "greeting": 3394,
      "slipper": 3395,
      "wylie": 3396,
      "attend": 3397,
      "basic": 3398,
      "harry": 3399,
      "hanging": 3400,
      "captain": 3401,
      "weird": 3402,
      "tablet": 3403,
      "receiving": 3404,
      "received": 3405,
      "considering": 3406,
      "essential": 3407,
      "loud": 3408,
      "necessarily": 3409,
      "possess": 3410,
      "winawk": 3411,
      "window": 3412,
      "settled": 3413,
      "accidentally": 3414,
      "celebrate": 3415,
      "easier": 3416,
      "jamster": 3417,
      "philosop": 3418,
      "yuo": 3419,
      "confidence": 3420,
      "apparently": 3421,
      "drunk": 3422,
      "closedincluding": 3423,
      "assume": 3424,
      "bcums": 3425,
      "dedic": 3426,
      "dirty": 3427,
      "kettoda": 3428,
      "nqp": 3429,
      "radio": 3430,
      "talent": 3431,
      "dictionary": 3432,
      "escape": 3433,
      "fifteen": 3434,
      "chicken": 3435,
      "pmsgrcvdhgsuitelandsrowwjhl": 3436,
      "passionate": 3437,
      "embarassed": 3438,
      "creep": 3439,
      "effect": 3440,
      "ibiza": 3441,
      "journey": 3442,
      "kusruthi": 3443,
      "often": 3444,
      "qxj": 3445,
      "source": 3446,
      "intelligent": 3447,
      "infernal": 3448,
      "released": 3449,
      "recogni": 3450,
      "stituitions": 3451,
      "throat": 3452,
      "ordered": 3453,
      "govtinstituitions": 3454,
      "church": 3455,
      "comuk": 3456,
      "itplspls": 3457,
      "shelf": 3458,
      "addicted": 3459,
      "module": 3460,
      "sptyrone": 3461,
      "lucozade": 3462,
      "explain": 3463,
      "preferably": 3464,
      "mobsmore": 3465,
      "meanwhile": 3466,
      "netcollex": 3467,
      "schedule": 3468,
      "lkpoboxhpfl": 3469,
      "_now": 3470,
      "az": 3471,
      "ass": 3472,
      "aur": 3473,
      "avi": 3474,
      "aah": 3475,
      "aking": 3476,
      "aww": 3477,
      "bst": 3478,
      "bck": 3479,
      "bum": 3480,
      "bread": 3481,
      "bour": 3482,
      "bmw": 3483,
      "cl": 3484,
      "cit": 3485,
      "cke": 3486,
      "dt": 3487,
      "dor": 3488,
      "dou": 3489,
      "dred": 3490,
      "dgi": 3491,
      "dance": 3492,
      "dden": 3493,
      "dition": 3494,
      "dsnt": 3495,
      "ell": 3496,
      "een": 3497,
      "esh": 3498,
      "evi": 3499,
      "eight": 3500,
      "fal": 3501,
      "fry": 3502,
      "flor": 3503,
      "foo": 3504,
      "fring": 3505,
      "fpart": 3506,
      "fath": 3507,
      "farm": 3508,
      "gate": 3509,
      "glor": 3510,
      "gga": 3511,
      "gary": 3512,
      "gang": 3513,
      "hon": 3514,
      "hat": 3515,
      "hats": 3516,
      "hint": 3517,
      "honi": 3518,
      "ix": 3519,
      "ike": 3520,
      "ily": 3521,
      "ias": 3522,
      "ies": 3523,
      "ious": 3524,
      "iouri": 3525,
      "jok": 3526,
      "jap": 3527,
      "jason": 3528,
      "kor": 3529,
      "kay": 3530,
      "kna": 3531,
      "kade": 3532,
      "lb": 3533,
      "lous": 3534,
      "lounge": 3535,
      "mt": 3536,
      "mbo": 3537,
      "mart": 3538,
      "math": 3539,
      "nia": 3540,
      "oi": 3541,
      "ox": 3542,
      "oic": 3543,
      "okey": 3544,
      "pal": 3545,
      "pok": 3546,
      "pink": 3547,
      "pout": 3548,
      "path": 3549,
      "psy": 3550,
      "pending": 3551,
      "rop": 3552,
      "rang": 3553,
      "sd": 3554,
      "sg": 3555,
      "slo": 3556,
      "sci": 3557,
      "swo": 3558,
      "sath": 3559,
      "slot": 3560,
      "smissed": 3561,
      "slice": 3562,
      "sara": 3563,
      "tar": 3564,
      "tur": 3565,
      "tly": 3566,
      "tmobile": 3567,
      "tsun": 3568,
      "tree": 3569,
      "twel": 3570,
      "ud": 3571,
      "ul": 3572,
      "une": 3573,
      "uine": 3574,
      "ucy": 3575,
      "uition": 3576,
      "uhui": 3577,
      "vour": 3578,
      "vari": 3579,
      "wp": 3580,
      "ws": 3581,
      "woo": 3582,
      "wali": 3583,
      "xavi": 3584,
      "xuhui": 3585,
      "ying": 3586,
      "yor": 3587,
      "yam": 3588,
      "åð": 3589,
      "ini": 3590,
      "ino": 3591,
      "inve": 3592,
      "inning": 3593,
      "ination": 3594,
      "rec": 3595,
      "reli": 3596,
      "remin": 3597,
      "regu": 3598,
      "resub": 3599,
      "recd": 3600,
      "removed": 3601,
      "oned": 3602,
      "onwards": 3603,
      "erm": 3604,
      "eral": 3605,
      "error": 3606,
      "anal": 3607,
      "anno": 3608,
      "anish": 3609,
      "sti": 3610,
      "stair": 3611,
      "enge": 3612,
      "ency": 3613,
      "envir": 3614,
      "atm": 3615,
      "attra": 3616,
      "argh": 3617,
      "arsen": 3618,
      "tha": 3619,
      "thu": 3620,
      "thet": 3621,
      "tham": 3622,
      "thil": 3623,
      "mel": 3624,
      "mes": 3625,
      "memor": 3626,
      "mega": 3627,
      "measure": 3628,
      "orci": 3629,
      "orstoptxt": 3630,
      "cade": 3631,
      "caught": 3632,
      "chart": 3633,
      "champ": 3634,
      "chol": 3635,
      "chless": 3636,
      "chap": 3637,
      "chasing": 3638,
      "alco": 3639,
      "alive": 3640,
      "alous": 3641,
      "alwy": 3642,
      "alfie": 3643,
      "album": 3644,
      "eter": 3645,
      "sel": 3646,
      "sey": 3647,
      "seat": 3648,
      "secu": 3649,
      "core": 3650,
      "itz": 3651,
      "itly": 3652,
      "itûs": 3653,
      "veget": 3654,
      "lov": 3655,
      "lock": 3656,
      "logy": 3657,
      "shb": 3658,
      "shore": 3659,
      "shot": 3660,
      "lil": 3661,
      "liff": 3662,
      "lido": 3663,
      "lication": 3664,
      "lifet": 3665,
      "lifpart": 3666,
      "ssur": 3667,
      "impossible": 3668,
      "owner": 3669,
      "tec": 3670,
      "tex": 3671,
      "tessy": 3672,
      "ces": 3673,
      "cewhat": 3674,
      "rich": 3675,
      "river": 3676,
      "uro": 3677,
      "deser": 3678,
      "death": 3679,
      "depress": 3680,
      "dearer": 3681,
      "calld": 3682,
      "callin": 3683,
      "callback": 3684,
      "callcost": 3685,
      "option": 3686,
      "lyits": 3687,
      "dayu": 3688,
      "ently": 3689,
      "okok": 3690,
      "okthen": 3691,
      "tie": 3692,
      "tight": 3693,
      "nee": 3694,
      "neg": 3695,
      "newest": 3696,
      "ungu": 3697,
      "unfor": 3698,
      "ungin": 3699,
      "hex": 3700,
      "heed": 3701,
      "heal": 3702,
      "hesit": 3703,
      "adore": 3704,
      "addie": 3705,
      "tog": 3706,
      "too": 3707,
      "toll": 3708,
      "toot": 3709,
      "tooth": 3710,
      "tomarrow": 3711,
      "welp": 3712,
      "hause": 3713,
      "haiz": 3714,
      "hallow": 3715,
      "halla": 3716,
      "ender": 3717,
      "mall": 3718,
      "mach": 3719,
      "maah": 3720,
      "macho": 3721,
      "major": 3722,
      "anty": 3723,
      "som": 3724,
      "roast": 3725,
      "rofl": 3726,
      "gegn": 3727,
      "lturl": 3728,
      "nted": 3729,
      "very": 3730,
      "asda": 3731,
      "asam": 3732,
      "bec": 3733,
      "bein": 3734,
      "bered": 3735,
      "beware": 3736,
      "behave": 3737,
      "few": 3738,
      "fell": 3739,
      "feat": 3740,
      "fear": 3741,
      "fess": 3742,
      "fered": 3743,
      "female": 3744,
      "suit": 3745,
      "supr": 3746,
      "boye": 3747,
      "yeh": 3748,
      "posed": 3749,
      "rail": 3750,
      "raji": 3751,
      "mph": 3752,
      "freezing": 3753,
      "dial": 3754,
      "dick": 3755,
      "diam": 3756,
      "difi": 3757,
      "dign": 3758,
      "minna": 3759,
      "minungin": 3760,
      "tam": 3761,
      "tape": 3762,
      "spk": 3763,
      "spla": 3764,
      "spir": 3765,
      "spring": 3766,
      "spare": 3767,
      "spanish": 3768,
      "gust": 3769,
      "guilt": 3770,
      "visor": 3771,
      "viol": 3772,
      "usc": 3773,
      "goodnite": 3774,
      "known": 3775,
      "knowing": 3776,
      "bigger": 3777,
      "wick": 3778,
      "wale": 3779,
      "waheed": 3780,
      "likely": 3781,
      "nap": 3782,
      "anywhere": 3783,
      "anythin": 3784,
      "sare": 3785,
      "sachin": 3786,
      "saucy": 3787,
      "textoperator": 3788,
      "morph": 3789,
      "moralone": 3790,
      "ummmm": 3791,
      "blefrnd": 3792,
      "sender": 3793,
      "repla": 3794,
      "repair": 3795,
      "replace": 3796,
      "sometime": 3797,
      "dave": 3798,
      "darealy": 3799,
      "hide": 3800,
      "history": 3801,
      "sian": 3802,
      "siri": 3803,
      "size": 3804,
      "mul": 3805,
      "cutive": 3806,
      "sorrow": 3807,
      "sorting": 3808,
      "courage": 3809,
      "prof": 3810,
      "prolly": 3811,
      "proof": 3812,
      "prospect": 3813,
      "program": 3814,
      "prompt": 3815,
      "profess": 3816,
      "php": 3817,
      "phne": 3818,
      "terrible": 3819,
      "todaysunday": 3820,
      "claire": 3821,
      "buzy": 3822,
      "homeowner": 3823,
      "conven": 3824,
      "lucy": 3825,
      "fai": 3826,
      "fave": 3827,
      "fake": 3828,
      "fair": 3829,
      "fail": 3830,
      "failed": 3831,
      "amy": 3832,
      "americ": 3833,
      "exorci": 3834,
      "msging": 3835,
      "waitu": 3836,
      "ruction": 3837,
      "cious": 3838,
      "missin": 3839,
      "dot": 3840,
      "doggy": 3841,
      "force": 3842,
      "forgiven": 3843,
      "fornia": 3844,
      "acy": 3845,
      "messeng": 3846,
      "messsubscription": 3847,
      "acted": 3848,
      "upgra": 3849,
      "tones": 3850,
      "dearly": 3851,
      "evn": 3852,
      "scr": 3853,
      "scary": 3854,
      "chee": 3855,
      "chess": 3856,
      "chechi": 3857,
      "winning": 3858,
      "boxqu": 3859,
      "boxes": 3860,
      "boxsk": 3861,
      "boxnqp": 3862,
      "messagesmissed": 3863,
      "outstanding": 3864,
      "garet": 3865,
      "icy": 3866,
      "lately": 3867,
      "continu": 3868,
      "mention": 3869,
      "gran": 3870,
      "ground": 3871,
      "sley": 3872,
      "pret": 3873,
      "prey": 3874,
      "prefer": 3875,
      "previously": 3876,
      "previous": 3877,
      "sentence": 3878,
      "comb": 3879,
      "fici": 3880,
      "stuck": 3881,
      "babecouk": 3882,
      "vava": 3883,
      "pull": 3884,
      "manee": 3885,
      "apps": 3886,
      "caring": 3887,
      "cardiff": 3888,
      "ipwe": 3889,
      "havin": 3890,
      "iscoming": 3891,
      "wkg": 3892,
      "wksub": 3893,
      "thanksgiving": 3894,
      "prop": 3895,
      "nokias": 3896,
      "smoking": 3897,
      "chatting": 3898,
      "subpoly": 3899,
      "vali": 3900,
      "urgentbut": 3901,
      "urgentlyits": 3902,
      "planet": 3903,
      "margaret": 3904,
      "countin": 3905,
      "finishing": 3906,
      "audition": 3907,
      "august": 3908,
      "gona": 3909,
      "lotr": 3910,
      "lots": 3911,
      "swtheart": 3912,
      "switch": 3913,
      "tcrw": 3914,
      "july": 3915,
      "juicy": 3916,
      "imple": 3917,
      "business": 3918,
      "reality": 3919,
      "realiz": 3920,
      "suntec": 3921,
      "eaten": 3922,
      "kkim": 3923,
      "cornw": 3924,
      "hubby": 3925,
      "ptbo": 3926,
      "skip": 3927,
      "hahahause": 3928,
      "nichol": 3929,
      "booking": 3930,
      "dislike": 3931,
      "display": 3932,
      "disconnect": 3933,
      "monthly": 3934,
      "duct": 3935,
      "girlfrnd": 3936,
      "birla": 3937,
      "payoh": 3938,
      "payment": 3939,
      "trave": 3940,
      "stext": 3941,
      "crab": 3942,
      "crash": 3943,
      "crack": 3944,
      "cramp": 3945,
      "loses": 3946,
      "holidayso": 3947,
      "hrs": 3948,
      "games": 3949,
      "oreo": 3950,
      "polyph": 3951,
      "bros": 3952,
      "brothas": 3953,
      "incident": 3954,
      "calcu": 3955,
      "sweetest": 3956,
      "aoke": 3957,
      "izen": 3958,
      "jealous": 3959,
      "parti": 3960,
      "parked": 3961,
      "headache": 3962,
      "prince": 3963,
      "restaur": 3964,
      "questioned": 3965,
      "handed": 3966,
      "aged": 3967,
      "tension": 3968,
      "postcode": 3969,
      "gngegn": 3970,
      "collecting": 3971,
      "collected": 3972,
      "networking": 3973,
      "bloo": 3974,
      "walked": 3975,
      "invite": 3976,
      "invnted": 3977,
      "lightly": 3978,
      "painful": 3979,
      "james": 3980,
      "senthil": 3981,
      "storming": 3982,
      "liverpool": 3983,
      "telphone": 3984,
      "wifehow": 3985,
      "xxxxxx": 3986,
      "xxxxxxxxx": 3987,
      "officeunderstand": 3988,
      "hundred": 3989,
      "norm": 3990,
      "north": 3991,
      "eigh": 3992,
      "shesil": 3993,
      "whenevr": 3994,
      "drinking": 3995,
      "bbs": 3996,
      "cannt": 3997,
      "grahm": 3998,
      "stranger": 3999,
      "elsewhere": 4000,
      "batch": 4001,
      "validhrs": 4002,
      "gbpmtmsg": 4003,
      "stood": 4004,
      "stomp": 4005,
      "stomach": 4006,
      "butt": 4007,
      "dingly": 4008,
      "understood": 4009,
      "beauty": 4010,
      "germany": 4011,
      "lind": 4012,
      "natal": 4013,
      "natuition": 4014,
      "symbo": 4015,
      "delay": 4016,
      "opening": 4017,
      "tscswinawk": 4018,
      "blah": 4019,
      "blame": 4020,
      "blake": 4021,
      "hardcore": 4022,
      "spoon": 4023,
      "madam": 4024,
      "medicine": 4025,
      "sleepingand": 4026,
      "abta": 4027,
      "absolu": 4028,
      "flash": 4029,
      "flaked": 4030,
      "filthy": 4031,
      "touched": 4032,
      "thatûs": 4033,
      "maxå": 4034,
      "ability": 4035,
      "billed": 4036,
      "certain": 4037,
      "middle": 4038,
      "starwar": 4039,
      "chain": 4040,
      "forevr": 4041,
      "foreign": 4042,
      "kindly": 4043,
      "jane": 4044,
      "usuali": 4045,
      "response": 4046,
      "responding": 4047,
      "responcewhat": 4048,
      "chosen": 4049,
      "laughed": 4050,
      "distance": 4051,
      "downloads": 4052,
      "staff": 4053,
      "confirmed": 4054,
      "ctive": 4055,
      "icient": 4056,
      "teacher": 4057,
      "sorted": 4058,
      "garage": 4059,
      "soup": 4060,
      "shijas": 4061,
      "shipping": 4062,
      "dealer": 4063,
      "solved": 4064,
      "period": 4065,
      "returned": 4066,
      "blur": 4067,
      "fightng": 4068,
      "footprint": 4069,
      "hhh": 4070,
      "uuuu": 4071,
      "vodka": 4072,
      "community": 4073,
      "shut": 4074,
      "unique": 4075,
      "univers": 4076,
      "ldnwh": 4077,
      "slap": 4078,
      "turned": 4079,
      "instantly": 4080,
      "instruction": 4081,
      "nearly": 4082,
      "difference": 4083,
      "praying": 4084,
      "voicemail": 4085,
      "catching": 4086,
      "stupidits": 4087,
      "honeybee": 4088,
      "warner": 4089,
      "register": 4090,
      "avent": 4091,
      "avatar": 4092,
      "wud": 4093,
      "wuld": 4094,
      "china": 4095,
      "supervisor": 4096,
      "cutefrnd": 4097,
      "quickly": 4098,
      "bxipwe": 4099,
      "burger": 4100,
      "mnth": 4101,
      "ranjith": 4102,
      "ville": 4103,
      "logopic": 4104,
      "tease": 4105,
      "advent": 4106,
      "sucker": 4107,
      "stoptxtstop": 4108,
      "transfered": 4109,
      "gbpweek": 4110,
      "regarding": 4111,
      "randomly": 4112,
      "cricket": 4113,
      "genuine": 4114,
      "jstfrnd": 4115,
      "jordan": 4116,
      "popped": 4117,
      "which": 4118,
      "callsmessagesmissed": 4119,
      "cruise": 4120,
      "occu": 4121,
      "virgin": 4122,
      "wallpaper": 4123,
      "calicut": 4124,
      "california": 4125,
      "channel": 4126,
      "chillin": 4127,
      "nelvali": 4128,
      "helen": 4129,
      "helpp": 4130,
      "successful": 4131,
      "successfully": 4132,
      "potential": 4133,
      "luxury": 4134,
      "gentleman": 4135,
      "pmtmsgrcvd": 4136,
      "breath": 4137,
      "breathe": 4138,
      "gmgngegn": 4139,
      "remains": 4140,
      "strike": 4141,
      "shorter": 4142,
      "shortage": 4143,
      "technical": 4144,
      "despar": 4145,
      "ppermesssubscription": 4146,
      "bottle": 4147,
      "bottom": 4148,
      "irritating": 4149,
      "sorydarealy": 4150,
      "mobilesdirect": 4151,
      "mobilesvary": 4152,
      "messageno": 4153,
      "winaweek": 4154,
      "tcsstop": 4155,
      "tcsbcmwcnxx": 4156,
      "favourite": 4157,
      "deliveredtomorrow": 4158,
      "avoid": 4159,
      "browni": 4160,
      "floor": 4161,
      "teeth": 4162,
      "tirupur": 4163,
      "lacsthere": 4164,
      "lacsthats": 4165,
      "software": 4166,
      "position": 4167,
      "cuddle": 4168,
      "executive": 4169,
      "explic": 4170,
      "gautham": 4171,
      "field": 4172,
      "management": 4173,
      "nimyapls": 4174,
      "remembr": 4175,
      "remembered": 4176,
      "aathilove": 4177,
      "aathiwhere": 4178,
      "groo": 4179,
      "gardener": 4180,
      "lvblefrnd": 4181,
      "million": 4182,
      "nurungu": 4183,
      "snake": 4184,
      "taylor": 4185,
      "vettam": 4186,
      "leona": 4187,
      "neighbour": 4188,
      "advise": 4189,
      "beyond": 4190,
      "wisdom": 4191,
      "provided": 4192,
      "building": 4193,
      "constantly": 4194,
      "concentrate": 4195,
      "concert": 4196,
      "convinced": 4197,
      "exhausted": 4198,
      "satisfied": 4199,
      "prabhaim": 4200,
      "scotland": 4201,
      "callsåminmobsmore": 4202,
      "ibhltd": 4203,
      "cleared": 4204,
      "generally": 4205,
      "husband": 4206,
      "karaoke": 4207,
      "walmart": 4208,
      "yummy": 4209,
      "åperwksub": 4210,
      "enuff": 4211,
      "attach": 4212,
      "gossip": 4213,
      "challenge": 4214,
      "shouted": 4215,
      "weûre": 4216,
      "modation": 4217,
      "pocketbabecouk": 4218,
      "speechless": 4219,
      "accordingly": 4220,
      "swimming": 4221,
      "skillgame": 4222,
      "dubsack": 4223,
      "matrix": 4224,
      "responsibility": 4225,
      "celebration": 4226,
      "apologise": 4227,
      "possession": 4228,
      "philosophy": 4229,
      "bstfrnd": 4230,
      "citizen": 4231,
      "ckered": 4232,
      "frying": 4233,
      "fathima": 4234,
      "ikea": 4235,
      "knackered": 4236,
      "kadeem": 4237,
      "lousy": 4238,
      "tsunami": 4239,
      "twelve": 4240,
      "various": 4241,
      "xavier": 4242,
      "invest": 4243,
      "reminder": 4244,
      "regular": 4245,
      "environ": 4246,
      "arsenal": 4247,
      "alcohol": 4248,
      "alwys": 4249,
      "vegetable": 4250,
      "lifetime": 4251,
      "lifpartnr": 4252,
      "tessypls": 4253,
      "okthenwhats": 4254,
      "unfortun": 4255,
      "halloween": 4256,
      "lturlgt": 4257,
      "suprman": 4258,
      "railway": 4259,
      "rajipls": 4260,
      "diamond": 4261,
      "dificult": 4262,
      "dignity": 4263,
      "minnaminungin": 4264,
      "guilty": 4265,
      "violence": 4266,
      "morphine": 4267,
      "ummmmmaah": 4268,
      "todaysundaysunday": 4269,
      "american": 4270,
      "messenger": 4271,
      "upgrade": 4272,
      "maneesha": 4273,
      "realized": 4274,
      "cornwall": 4275,
      "nichols": 4276,
      "restaurant": 4277,
      "grahmbell": 4278,
      "symbol": 4279,
      "tscswinawkage": 4280,
      "certainly": 4281,
      "starwars": 4282,
      "usualiam": 4283,
      "university": 4284,
      "sorydarealyfrm": 4285,
      "minnaminunginte": 4286,
      "aj": 4287,
      "aco": 4288,
      "ake": 4289,
      "aday": 4290,
      "abe": 4291,
      "apro": 4292,
      "aom": 4293,
      "afri": 4294,
      "ared": 4295,
      "ape": 4296,
      "agent": 4297,
      "agon": 4298,
      "apt": 4299,
      "aven": 4300,
      "again": 4301,
      "acade": 4302,
      "bing": 4303,
      "bone": 4304,
      "båõ": 4305,
      "bree": 4306,
      "brist": 4307,
      "btooth": 4308,
      "blind": 4309,
      "cin": 4310,
      "cen": 4311,
      "cme": 4312,
      "cay": 4313,
      "cco": 4314,
      "csh": 4315,
      "cld": 4316,
      "cational": 4317,
      "ckey": 4318,
      "cliff": 4319,
      "db": 4320,
      "dc": 4321,
      "dg": 4322,
      "dha": 4323,
      "dant": 4324,
      "dod": 4325,
      "drea": 4326,
      "dough": 4327,
      "denti": 4328,
      "durb": 4329,
      "dhin": 4330,
      "danger": 4331,
      "dumb": 4332,
      "dhoni": 4333,
      "ele": 4334,
      "eek": 4335,
      "elect": 4336,
      "ecst": 4337,
      "election": 4338,
      "etheart": 4339,
      "ebay": 4340,
      "ethre": 4341,
      "fc": 4342,
      "fg": 4343,
      "fp": 4344,
      "fed": 4345,
      "fad": 4346,
      "flu": 4347,
      "fice": 4348,
      "furn": 4349,
      "feng": 4350,
      "fond": 4351,
      "gf": 4352,
      "gp": 4353,
      "gv": 4354,
      "gan": 4355,
      "gth": 4356,
      "glo": 4357,
      "gun": 4358,
      "gning": 4359,
      "gving": 4360,
      "gpu": 4361,
      "gane": 4362,
      "gender": 4363,
      "ht": 4364,
      "him": 4365,
      "hri": 4366,
      "had": 4367,
      "hha": 4368,
      "hid": 4369,
      "hpp": 4370,
      "hite": 4371,
      "hlp": 4372,
      "htu": 4373,
      "hence": 4374,
      "human": 4375,
      "hthu": 4376,
      "ist": 4377,
      "iet": 4378,
      "ius": 4379,
      "iff": 4380,
      "ither": 4381,
      "ison": 4382,
      "ical": 4383,
      "ience": 4384,
      "iree": 4385,
      "ified": 4386,
      "jd": 4387,
      "jj": 4388,
      "jet": 4389,
      "jit": 4390,
      "jun": 4391,
      "jont": 4392,
      "jsu": 4393,
      "jah": 4394,
      "jia": 4395,
      "jsco": 4396,
      "kg": 4397,
      "kl": 4398,
      "kr": 4399,
      "kz": 4400,
      "kon": 4401,
      "kal": 4402,
      "kent": 4403,
      "kod": 4404,
      "kip": 4405,
      "kbut": 4406,
      "kthen": 4407,
      "kala": 4408,
      "koth": 4409,
      "kappa": 4410,
      "knee": 4411,
      "kasam": 4412,
      "ln": 4413,
      "lst": 4414,
      "lang": 4415,
      "leng": 4416,
      "lcc": 4417,
      "lsup": 4418,
      "lshb": 4419,
      "mc": 4420,
      "mj": 4421,
      "mca": 4422,
      "mli": 4423,
      "mok": 4424,
      "mma": 4425,
      "mtalk": 4426,
      "mcat": 4427,
      "mxy": 4428,
      "mount": 4429,
      "mouth": 4430,
      "nth": 4431,
      "nss": 4432,
      "nte": 4433,
      "nis": 4434,
      "nasda": 4435,
      "oy": 4436,
      "ost": 4437,
      "ose": 4438,
      "ove": 4439,
      "oday": 4440,
      "oil": 4441,
      "oline": 4442,
      "oja": 4443,
      "ocouk": 4444,
      "pd": 4445,
      "pw": 4446,
      "px": 4447,
      "på": 4448,
      "pday": 4449,
      "pad": 4450,
      "pand": 4451,
      "ptxt": 4452,
      "pour": 4453,
      "pouch": 4454,
      "paran": 4455,
      "psms": 4456,
      "pimple": 4457,
      "qi": 4458,
      "rm": 4459,
      "rv": 4460,
      "rst": 4461,
      "rct": 4462,
      "rting": 4463,
      "range": 4464,
      "rhy": 4465,
      "rori": 4466,
      "ranty": 4467,
      "sx": 4468,
      "sar": 4469,
      "sry": 4470,
      "sfree": 4471,
      "sall": 4472,
      "swi": 4473,
      "sand": 4474,
      "sway": 4475,
      "sats": 4476,
      "swan": 4477,
      "scom": 4478,
      "slp": 4479,
      "sary": 4480,
      "swatch": 4481,
      "sank": 4482,
      "sari": 4483,
      "snog": 4484,
      "slightly": 4485,
      "tx": 4486,
      "tz": 4487,
      "tok": 4488,
      "tant": 4489,
      "tct": 4490,
      "twent": 4491,
      "tank": 4492,
      "tans": 4493,
      "tlk": 4494,
      "tming": 4495,
      "uh": 4496,
      "uj": 4497,
      "ugo": 4498,
      "uce": 4499,
      "ubi": 4500,
      "ulate": 4501,
      "uthe": 4502,
      "ucc": 4503,
      "usher": 4504,
      "vg": 4505,
      "vu": 4506,
      "var": 4507,
      "vth": 4508,
      "vor": 4509,
      "vday": 4510,
      "vent": 4511,
      "vous": 4512,
      "vacy": 4513,
      "wq": 4514,
      "wth": 4515,
      "wend": 4516,
      "wro": 4517,
      "wld": 4518,
      "wary": 4519,
      "wren": 4520,
      "woot": 4521,
      "woken": 4522,
      "wmli": 4523,
      "xn": 4524,
      "xin": 4525,
      "xah": 4526,
      "xam": 4527,
      "xsto": 4528,
      "ys": 4529,
      "yt": 4530,
      "yy": 4531,
      "yed": 4532,
      "yck": 4533,
      "zze": 4534,
      "ziest": 4535,
      "åk": 4536,
      "åá": 4537,
      "åò": 4538,
      "åô": 4539,
      "åweek": 4540,
      "åmsg": 4541,
      "åmore": 4542,
      "ûª": 4543,
      "ûï": 4544,
      "ina": 4545,
      "inr": 4546,
      "iny": 4547,
      "into": 4548,
      "inno": 4549,
      "indy": 4550,
      "insha": 4551,
      "inade": 4552,
      "independ": 4553,
      "infection": 4554,
      "inconsider": 4555,
      "inshah": 4556,
      "infront": 4557,
      "indgi": 4558,
      "inconven": 4559,
      "rey": 4560,
      "reck": 4561,
      "remo": 4562,
      "rever": 4563,
      "rebo": 4564,
      "resend": 4565,
      "relat": 4566,
      "rection": 4567,
      "recess": 4568,
      "refun": 4569,
      "retri": 4570,
      "recover": 4571,
      "revision": 4572,
      "reaction": 4573,
      "refilled": 4574,
      "reschedule": 4575,
      "ony": 4576,
      "oning": 4577,
      "onde": 4578,
      "onion": 4579,
      "onau": 4580,
      "ery": 4581,
      "erate": 4582,
      "ermin": 4583,
      "erally": 4584,
      "ercial": 4585,
      "ingre": 4586,
      "ller": 4587,
      "answe": 4588,
      "anot": 4589,
      "ancial": 4590,
      "sts": 4591,
      "sting": 4592,
      "stat": 4593,
      "stnd": 4594,
      "stalk": 4595,
      "stret": 4596,
      "stini": 4597,
      "enow": 4598,
      "enice": 4599,
      "enåõt": 4600,
      "enix": 4601,
      "atme": 4602,
      "atch": 4603,
      "atlast": 4604,
      "atient": 4605,
      "atchee": 4606,
      "ark": 4607,
      "arw": 4608,
      "aring": 4609,
      "arock": 4610,
      "thx": 4611,
      "thgt": 4612,
      "thread": 4613,
      "thot": 4614,
      "meat": 4615,
      "meow": 4616,
      "meso": 4617,
      "melt": 4618,
      "meand": 4619,
      "mesa": 4620,
      "ord": 4621,
      "orig": 4622,
      "organ": 4623,
      "lex": 4624,
      "ayn": 4625,
      "ayin": 4626,
      "ayment": 4627,
      "ayuthe": 4628,
      "edward": 4629,
      "edison": 4630,
      "oul": 4631,
      "outage": 4632,
      "cave": 4633,
      "capp": 4634,
      "caster": 4635,
      "castor": 4636,
      "causing": 4637,
      "golo": 4638,
      "gover": 4639,
      "chg": 4640,
      "ching": 4641,
      "chic": 4642,
      "chip": 4643,
      "alter": 4644,
      "alam": 4645,
      "alac": 4646,
      "although": 4647,
      "algar": 4648,
      "alyam": 4649,
      "eto": 4650,
      "seh": 4651,
      "sem": 4652,
      "seer": 4653,
      "seed": 4654,
      "sever": 4655,
      "semi": 4656,
      "seek": 4657,
      "sems": 4658,
      "section": 4659,
      "coat": 4660,
      "como": 4661,
      "comor": 4662,
      "color": 4663,
      "colate": 4664,
      "costu": 4665,
      "coping": 4666,
      "coast": 4667,
      "cochin": 4668,
      "iti": 4669,
      "itlet": 4670,
      "itis": 4671,
      "itcould": 4672,
      "iture": 4673,
      "itleave": 4674,
      "itåõs": 4675,
      "itwhich": 4676,
      "itinade": 4677,
      "vega": 4678,
      "vewy": 4679,
      "lolo": 4680,
      "loxah": 4681,
      "loyed": 4682,
      "shra": 4683,
      "shamp": 4684,
      "shjas": 4685,
      "shining": 4686,
      "sharing": 4687,
      "lib": 4688,
      "lily": 4689,
      "lived": 4690,
      "sso": 4691,
      "ssco": 4692,
      "imi": 4693,
      "iment": 4694,
      "imate": 4695,
      "imum": 4696,
      "image": 4697,
      "kegger": 4698,
      "kempt": 4699,
      "owed": 4700,
      "tect": 4701,
      "telu": 4702,
      "rice": 4703,
      "rious": 4704,
      "risk": 4705,
      "rific": 4706,
      "ricity": 4707,
      "uring": 4708,
      "urity": 4709,
      "dex": 4710,
      "deli": 4711,
      "deus": 4712,
      "desi": 4713,
      "depart": 4714,
      "desk": 4715,
      "descri": 4716,
      "deera": 4717,
      "delete": 4718,
      "dehy": 4719,
      "demand": 4720,
      "delux": 4721,
      "deposit": 4722,
      "degree": 4723,
      "devour": 4724,
      "defeat": 4725,
      "callcoz": 4726,
      "callfreefone": 4727,
      "ghost": 4728,
      "opray": 4729,
      "oplane": 4730,
      "lyf": 4731,
      "lyk": 4732,
      "lyri": 4733,
      "lyfu": 4734,
      "dayfind": 4735,
      "dayshe": 4736,
      "entp": 4737,
      "oktake": 4738,
      "tip": 4739,
      "tics": 4740,
      "tiwary": 4741,
      "tissco": 4742,
      "neft": 4743,
      "nevr": 4744,
      "neither": 4745,
      "lag": 4746,
      "lap": 4747,
      "las": 4748,
      "lau": 4749,
      "laun": 4750,
      "unta": 4751,
      "undr": 4752,
      "unbeli": 4753,
      "unbreak": 4754,
      "uncons": 4755,
      "unintention": 4756,
      "unnecessarily": 4757,
      "unknown": 4758,
      "unkempt": 4759,
      "held": 4760,
      "heater": 4761,
      "adu": 4762,
      "ader": 4763,
      "admin": 4764,
      "adda": 4765,
      "adam": 4766,
      "admit": 4767,
      "adoring": 4768,
      "admini": 4769,
      "tooo": 4770,
      "tool": 4771,
      "toshi": 4772,
      "tomorro": 4773,
      "tomeand": 4774,
      "toopray": 4775,
      "wea": 4776,
      "wee": 4777,
      "were": 4778,
      "wesley": 4779,
      "hass": 4780,
      "habit": 4781,
      "haps": 4782,
      "enders": 4783,
      "moti": 4784,
      "moving": 4785,
      "getstop": 4786,
      "illas": 4787,
      "illness": 4788,
      "maang": 4789,
      "mahal": 4790,
      "makin": 4791,
      "mailed": 4792,
      "soo": 4793,
      "soz": 4794,
      "sole": 4795,
      "sota": 4796,
      "sooooo": 4797,
      "soiree": 4798,
      "ontxt": 4799,
      "roit": 4800,
      "rove": 4801,
      "royal": 4802,
      "ges": 4803,
      "geva": 4804,
      "george": 4805,
      "odi": 4806,
      "odis": 4807,
      "lttr": 4808,
      "ates": 4809,
      "atest": 4810,
      "bai": 4811,
      "base": 4812,
      "bage": 4813,
      "bagi": 4814,
      "bask": 4815,
      "baaaaa": 4816,
      "ldnw": 4817,
      "pply": 4818,
      "pptxt": 4819,
      "hog": 4820,
      "holy": 4821,
      "hockey": 4822,
      "cts": 4823,
      "ctter": 4824,
      "verb": 4825,
      "verified": 4826,
      "asu": 4827,
      "mic": 4828,
      "mila": 4829,
      "miser": 4830,
      "bees": 4831,
      "behav": 4832,
      "belive": 4833,
      "belong": 4834,
      "because": 4835,
      "before": 4836,
      "begging": 4837,
      "beloved": 4838,
      "worst": 4839,
      "plm": 4840,
      "pler": 4841,
      "pline": 4842,
      "plum": 4843,
      "fret": 4844,
      "freering": 4845,
      "sue": 4846,
      "sux": 4847,
      "suzy": 4848,
      "sumth": 4849,
      "superi": 4850,
      "sudden": 4851,
      "yellow": 4852,
      "yelling": 4853,
      "pole": 4854,
      "polo": 4855,
      "poop": 4856,
      "poster": 4857,
      "polit": 4858,
      "poem": 4859,
      "potat": 4860,
      "raed": 4861,
      "rael": 4862,
      "racing": 4863,
      "iru": 4864,
      "ircle": 4865,
      "nowi": 4866,
      "nowt": 4867,
      "nowsky": 4868,
      "nowaday": 4869,
      "mper": 4870,
      "mpel": 4871,
      "mployed": 4872,
      "freesend": 4873,
      "dime": 4874,
      "dible": 4875,
      "diyar": 4876,
      "division": 4877,
      "dipped": 4878,
      "diwali": 4879,
      "divor": 4880,
      "minor": 4881,
      "minimum": 4882,
      "tai": 4883,
      "tap": 4884,
      "tall": 4885,
      "taco": 4886,
      "tact": 4887,
      "taste": 4888,
      "tahan": 4889,
      "spin": 4890,
      "sper": 4891,
      "spam": 4892,
      "splle": 4893,
      "sptv": 4894,
      "spider": 4895,
      "spile": 4896,
      "spark": 4897,
      "gotten": 4898,
      "guage": 4899,
      "vil": 4900,
      "vive": 4901,
      "viri": 4902,
      "viva": 4903,
      "vibr": 4904,
      "victor": 4905,
      "usb": 4906,
      "goodo": 4907,
      "goodfriend": 4908,
      "goodnoon": 4909,
      "goodenviron": 4910,
      "wild": 4911,
      "wipro": 4912,
      "wifi": 4913,
      "widelive": 4914,
      "wihtu": 4915,
      "wave": 4916,
      "wasted": 4917,
      "waxsto": 4918,
      "ndx": 4919,
      "andre": 4920,
      "andcs": 4921,
      "andros": 4922,
      "nag": 4923,
      "nahi": 4924,
      "nasty": 4925,
      "nagar": 4926,
      "sac": 4927,
      "sai": 4928,
      "sacri": 4929,
      "textpod": 4930,
      "noi": 4931,
      "nove": 4932,
      "notxt": 4933,
      "nothin": 4934,
      "nooooo": 4935,
      "loveme": 4936,
      "ffle": 4937,
      "ffic": 4938,
      "ffie": 4939,
      "txtno": 4940,
      "txtau": 4941,
      "bleh": 4942,
      "blessed": 4943,
      "pied": 4944,
      "piss": 4945,
      "sends": 4946,
      "weekstop": 4947,
      "repeat": 4948,
      "wating": 4949,
      "msn": 4950,
      "msms": 4951,
      "msmu": 4952,
      "msfa": 4953,
      "percent": 4954,
      "perform": 4955,
      "permission": 4956,
      "perhaps": 4957,
      "finance": 4958,
      "financial": 4959,
      "dahow": 4960,
      "dawhats": 4961,
      "sib": 4962,
      "sic": 4963,
      "sip": 4964,
      "sible": 4965,
      "signi": 4966,
      "signing": 4967,
      "cula": 4968,
      "cular": 4969,
      "cussed": 4970,
      "curious": 4971,
      "epsil": 4972,
      "cough": 4973,
      "cousin": 4974,
      "probs": 4975,
      "profile": 4976,
      "protect": 4977,
      "proverb": 4978,
      "phy": 4979,
      "stopsms": 4980,
      "item": 4981,
      "tern": 4982,
      "terrori": 4983,
      "terrific": 4984,
      "mobilemovie": 4985,
      "fuses": 4986,
      "fujit": 4987,
      "jolt": 4988,
      "jolly": 4989,
      "jogging": 4990,
      "joanna": 4991,
      "happily": 4992,
      "todayfrom": 4993,
      "prior": 4994,
      "prisc": 4995,
      "privacy": 4996,
      "ques": 4997,
      "quiet": 4998,
      "reader": 4999
    },
    "merges": [
      [
        "i",
        "n"
      ],
      [
        "r",
        "e"
      ],
      [
        "o",
        "n"
      ],
      [
        "e",
        "r"
      ],
      [
        "in",
        "g"
      ],
      [
        "l",
        "l"
      ],
      [
        "a",
        "n"
      ],
      [
        "s",
        "t"
      ],
      [
        "e",
        "n"
      ],
      [
        "a",
        "t"
      ],
      [
        "a",
        "r"
      ],
      [
        "t",
        "h"
      ],
      [
        "m",
        "e"
      ],
      [
        "o",
        "r"
      ],
      [
        "l",
        "e"
      ],
      [
        "a",
        "y"
      ],
      [
        "e",
        "d"
      ],
      [
        "o",
        "u"
      ],
      [
        "c",
        "a"
      ],
      [
        "g",
        "o"
      ],
      [
        "c",
        "h"
      ],
      [
        "a",
        "l"
      ],
      [
        "e",
        "t"
      ],
      [
        "s",
        "e"
      ],
      [
        "c",
        "o"
      ],
      [
        "i",
        "t"
      ],
      [
        "v",
        "e"
      ],
      [
        "l",
        "o"
      ],
      [
        "s",
        "h"
      ],
      [
        "l",
        "i"
      ],
      [
        "s",
        "s"
      ],
      [
        "i",
        "m"
      ],
      [
        "k",
        "e"
      ],
      [
        "on",
        "e"
      ],
      [
        "o",
        "w"
      ],
      [
        "t",
        "e"
      ],
      [
        "c",
        "e"
      ],
      [
        "r",
        "i"
      ],
      [
        "u",
        "r"
      ],
      [
        "d",
        "e"
      ],
      [
        "ca",
        "ll"
      ],
      [
        "g",
        "h"
      ],
      [
        "o",
        "p"
      ],
      [
        "l",
        "y"
      ],
      [
        "d",
        "ay"
      ],
      [
        "en",
        "t"
      ],
      [
        "c",
        "k"
      ],
      [
        "o",
        "k"
      ],
      [
        "t",
        "i"
      ],
      [
        "n",
        "e"
      ],
      [
        "l",
        "a"
      ],
      [
        "u",
        "n"
      ],
      [
        "h",
        "e"
      ],
      [
        "x",
        "t"
      ],
      [
        "a",
        "d"
      ],
      [
        "t",
        "o"
      ],
      [
        "w",
        "e"
      ],
      [
        "gh",
        "t"
      ],
      [
        "h",
        "a"
      ],
      [
        "en",
        "d"
      ],
      [
        "m",
        "o"
      ],
      [
        "g",
        "et"
      ],
      [
        "i",
        "ll"
      ],
      [
        "m",
        "a"
      ],
      [
        "an",
        "t"
      ],
      [
        "s",
        "o"
      ],
      [
        "on",
        "t"
      ],
      [
        "i",
        "d"
      ],
      [
        "r",
        "o"
      ],
      [
        "g",
        "e"
      ],
      [
        "r",
        "y"
      ],
      [
        "o",
        "d"
      ],
      [
        "l",
        "t"
      ],
      [
        "at",
        "e"
      ],
      [
        "n",
        "t"
      ],
      [
        "b",
        "a"
      ],
      [
        "l",
        "d"
      ],
      [
        "p",
        "p"
      ],
      [
        "h",
        "o"
      ],
      [
        "c",
        "t"
      ],
      [
        "v",
        "er"
      ],
      [
        "a",
        "s"
      ],
      [
        "m",
        "i"
      ],
      [
        "b",
        "e"
      ],
      [
        "w",
        "or"
      ],
      [
        "p",
        "l"
      ],
      [
        "f",
        "e"
      ],
      [
        "f",
        "re"
      ],
      [
        "s",
        "u"
      ],
      [
        "b",
        "o"
      ],
      [
        "y",
        "e"
      ],
      [
        "p",
        "o"
      ],
      [
        "r",
        "a"
      ],
      [
        "th",
        "ing"
      ],
      [
        "i",
        "r"
      ],
      [
        "g",
        "t"
      ],
      [
        "n",
        "ow"
      ],
      [
        "m",
        "p"
      ],
      [
        "fre",
        "e"
      ],
      [
        "d",
        "i"
      ],
      [
        "m",
        "in"
      ],
      [
        "t",
        "a"
      ],
      [
        "s",
        "p"
      ],
      [
        "go",
        "t"
      ],
      [
        "g",
        "u"
      ],
      [
        "d",
        "ont"
      ],
      [
        "in",
        "e"
      ],
      [
        "v",
        "i"
      ],
      [
        "u",
        "s"
      ],
      [
        "go",
        "od"
      ],
      [
        "ti",
        "me"
      ],
      [
        "co",
        "me"
      ],
      [
        "i",
        "on"
      ],
      [
        "i",
        "ght"
      ],
      [
        "k",
        "now"
      ],
      [
        "b",
        "i"
      ],
      [
        "lt",
        "gt"
      ],
      [
        "a",
        "ll"
      ],
      [
        "i",
        "ve"
      ],
      [
        "w",
        "i"
      ],
      [
        "w",
        "a"
      ],
      [
        "n",
        "d"
      ],
      [
        "li",
        "ke"
      ],
      [
        "an",
        "d"
      ],
      [
        "n",
        "a"
      ],
      [
        "an",
        "y"
      ],
      [
        "le",
        "a"
      ],
      [
        "s",
        "a"
      ],
      [
        "w",
        "ant"
      ],
      [
        "te",
        "xt"
      ],
      [
        "n",
        "o"
      ],
      [
        "lo",
        "ve"
      ],
      [
        "ar",
        "d"
      ],
      [
        "f",
        "f"
      ],
      [
        "m",
        "or"
      ],
      [
        "x",
        "x"
      ],
      [
        "u",
        "m"
      ],
      [
        "in",
        "k"
      ],
      [
        "t",
        "xt"
      ],
      [
        "w",
        "ay"
      ],
      [
        "b",
        "le"
      ],
      [
        "ar",
        "t"
      ],
      [
        "e",
        "k"
      ],
      [
        "p",
        "i"
      ],
      [
        "s",
        "end"
      ],
      [
        "we",
        "ek"
      ],
      [
        "re",
        "p"
      ],
      [
        "w",
        "at"
      ],
      [
        "m",
        "s"
      ],
      [
        "p",
        "er"
      ],
      [
        "f",
        "in"
      ],
      [
        "so",
        "me"
      ],
      [
        "d",
        "a"
      ],
      [
        "a",
        "ge"
      ],
      [
        "h",
        "i"
      ],
      [
        "s",
        "i"
      ],
      [
        "m",
        "u"
      ],
      [
        "c",
        "u"
      ],
      [
        "e",
        "p"
      ],
      [
        "s",
        "or"
      ],
      [
        "c",
        "ou"
      ],
      [
        "p",
        "ro"
      ],
      [
        "p",
        "h"
      ],
      [
        "se",
        "e"
      ],
      [
        "ne",
        "ed"
      ],
      [
        "e",
        "ver"
      ],
      [
        "st",
        "op"
      ],
      [
        "it",
        "e"
      ],
      [
        "b",
        "er"
      ],
      [
        "t",
        "er"
      ],
      [
        "wor",
        "k"
      ],
      [
        "mo",
        "bi"
      ],
      [
        "mobi",
        "le"
      ],
      [
        "f",
        "u"
      ],
      [
        "j",
        "o"
      ],
      [
        "l",
        "at"
      ],
      [
        "ha",
        "pp"
      ],
      [
        "o",
        "m"
      ],
      [
        "to",
        "day"
      ],
      [
        "c",
        "la"
      ],
      [
        "ne",
        "w"
      ],
      [
        "p",
        "ri"
      ],
      [
        "th",
        "ink"
      ],
      [
        "l",
        "or"
      ],
      [
        "q",
        "u"
      ],
      [
        "go",
        "ing"
      ],
      [
        "re",
        "ad"
      ],
      [
        "all",
        "y"
      ],
      [
        "b",
        "u"
      ],
      [
        "f",
        "ri"
      ],
      [
        "ho",
        "me"
      ],
      [
        "c",
        "on"
      ],
      [
        "l",
        "u"
      ],
      [
        "a",
        "h"
      ],
      [
        "f",
        "a"
      ],
      [
        "p",
        "a"
      ],
      [
        "re",
        "d"
      ],
      [
        "te",
        "ll"
      ],
      [
        "at",
        "s"
      ],
      [
        "a",
        "m"
      ],
      [
        "ou",
        "nd"
      ],
      [
        "e",
        "x"
      ],
      [
        "ba",
        "ck"
      ],
      [
        "sor",
        "ry"
      ],
      [
        "rep",
        "ly"
      ],
      [
        "r",
        "ow"
      ],
      [
        "st",
        "ill"
      ],
      [
        "ph",
        "one"
      ],
      [
        "re",
        "at"
      ],
      [
        "ms",
        "g"
      ],
      [
        "wa",
        "it"
      ],
      [
        "ta",
        "ke"
      ],
      [
        "r",
        "u"
      ],
      [
        "as",
        "k"
      ],
      [
        "e",
        "l"
      ],
      [
        "th",
        "er"
      ],
      [
        "th",
        "an"
      ],
      [
        "c",
        "i"
      ],
      [
        "o",
        "o"
      ],
      [
        "mi",
        "ss"
      ],
      [
        "we",
        "ll"
      ],
      [
        "sp",
        "e"
      ],
      [
        "s",
        "ay"
      ],
      [
        "d",
        "o"
      ],
      [
        "f",
        "or"
      ],
      [
        "h",
        "op"
      ],
      [
        "n",
        "ight"
      ],
      [
        "m",
        "m"
      ],
      [
        "i",
        "l"
      ],
      [
        "a",
        "c"
      ],
      [
        "y",
        "ou"
      ],
      [
        "me",
        "ss"
      ],
      [
        "fri",
        "end"
      ],
      [
        "a",
        "ct"
      ],
      [
        "lat",
        "er"
      ],
      [
        "p",
        "lea"
      ],
      [
        "u",
        "p"
      ],
      [
        "ever",
        "y"
      ],
      [
        "read",
        "y"
      ],
      [
        "me",
        "et"
      ],
      [
        "pl",
        "s"
      ],
      [
        "plea",
        "se"
      ],
      [
        "i",
        "ce"
      ],
      [
        "t",
        "one"
      ],
      [
        "c",
        "ant"
      ],
      [
        "de",
        "ar"
      ],
      [
        "n",
        "ing"
      ],
      [
        "l",
        "ine"
      ],
      [
        "ri",
        "ght"
      ],
      [
        "ma",
        "ke"
      ],
      [
        "e",
        "v"
      ],
      [
        "s",
        "c"
      ],
      [
        "ti",
        "on"
      ],
      [
        "cla",
        "im"
      ],
      [
        "hop",
        "e"
      ],
      [
        "z",
        "e"
      ],
      [
        "ch",
        "e"
      ],
      [
        "o",
        "h"
      ],
      [
        "s",
        "er"
      ],
      [
        "w",
        "in"
      ],
      [
        "ì",
        "_"
      ],
      [
        "le",
        "t"
      ],
      [
        "bo",
        "x"
      ],
      [
        "p",
        "e"
      ],
      [
        "mu",
        "ch"
      ],
      [
        "mess",
        "age"
      ],
      [
        "g",
        "reat"
      ],
      [
        "n",
        "um"
      ],
      [
        "ou",
        "r"
      ],
      [
        "ou",
        "t"
      ],
      [
        "d",
        "er"
      ],
      [
        "w",
        "h"
      ],
      [
        "g",
        "a"
      ],
      [
        "i",
        "c"
      ],
      [
        "l",
        "ate"
      ],
      [
        "he",
        "y"
      ],
      [
        "than",
        "k"
      ],
      [
        "a",
        "mp"
      ],
      [
        "f",
        "t"
      ],
      [
        "w",
        "an"
      ],
      [
        "c",
        "ont"
      ],
      [
        "on",
        "g"
      ],
      [
        "num",
        "ber"
      ],
      [
        "i",
        "sh"
      ],
      [
        "r",
        "ing"
      ],
      [
        "g",
        "ive"
      ],
      [
        "happ",
        "y"
      ],
      [
        "w",
        "ard"
      ],
      [
        "m",
        "ent"
      ],
      [
        "g",
        "r"
      ],
      [
        "i",
        "a"
      ],
      [
        "t",
        "ing"
      ],
      [
        "mor",
        "row"
      ],
      [
        "e",
        "s"
      ],
      [
        "re",
        "a"
      ],
      [
        "at",
        "ion"
      ],
      [
        "al",
        "k"
      ],
      [
        "g",
        "i"
      ],
      [
        "ca",
        "re"
      ],
      [
        "co",
        "mp"
      ],
      [
        "f",
        "r"
      ],
      [
        "s",
        "le"
      ],
      [
        "to",
        "morrow"
      ],
      [
        "fe",
        "el"
      ],
      [
        "ye",
        "s"
      ],
      [
        "c",
        "tion"
      ],
      [
        "m",
        "ay"
      ],
      [
        "y",
        "a"
      ],
      [
        "re",
        "nt"
      ],
      [
        "or",
        "t"
      ],
      [
        "pri",
        "ze"
      ],
      [
        "g",
        "ent"
      ],
      [
        "o",
        "ff"
      ],
      [
        "p",
        "re"
      ],
      [
        "s",
        "ent"
      ],
      [
        "ll",
        "e"
      ],
      [
        "an",
        "ce"
      ],
      [
        "th",
        "e"
      ],
      [
        "th",
        "ats"
      ],
      [
        "co",
        "m"
      ],
      [
        "mor",
        "ning"
      ],
      [
        "l",
        "and"
      ],
      [
        "d",
        "id"
      ],
      [
        "f",
        "i"
      ],
      [
        "t",
        "ry"
      ],
      [
        "v",
        "ing"
      ],
      [
        "pi",
        "ck"
      ],
      [
        "st",
        "u"
      ],
      [
        "st",
        "er"
      ],
      [
        "ou",
        "ld"
      ],
      [
        "ca",
        "sh"
      ],
      [
        "li",
        "fe"
      ],
      [
        "t",
        "y"
      ],
      [
        "al",
        "ready"
      ],
      [
        "ev",
        "en"
      ],
      [
        "s",
        "on"
      ],
      [
        "ba",
        "be"
      ],
      [
        "sa",
        "id"
      ],
      [
        "m",
        "on"
      ],
      [
        "v",
        "a"
      ],
      [
        "d",
        "un"
      ],
      [
        "ye",
        "ah"
      ],
      [
        "sle",
        "ep"
      ],
      [
        "f",
        "o"
      ],
      [
        "p",
        "u"
      ],
      [
        "re",
        "ally"
      ],
      [
        "co",
        "lle"
      ],
      [
        "m",
        "an"
      ],
      [
        "t",
        "on"
      ],
      [
        "w",
        "o"
      ],
      [
        "vi",
        "ce"
      ],
      [
        "fin",
        "d"
      ],
      [
        "a",
        "pp"
      ],
      [
        "c",
        "ar"
      ],
      [
        "i",
        "p"
      ],
      [
        "sh",
        "ow"
      ],
      [
        "ha",
        "v"
      ],
      [
        "f",
        "ir"
      ],
      [
        "w",
        "ould"
      ],
      [
        "in",
        "t"
      ],
      [
        "la",
        "st"
      ],
      [
        "h",
        "ow"
      ],
      [
        "th",
        "ou"
      ],
      [
        "i",
        "s"
      ],
      [
        "w",
        "k"
      ],
      [
        "lo",
        "ok"
      ],
      [
        "thank",
        "s"
      ],
      [
        "did",
        "nt"
      ],
      [
        "p",
        "r"
      ],
      [
        "p",
        "la"
      ],
      [
        "n",
        "ok"
      ],
      [
        "s",
        "m"
      ],
      [
        "it",
        "y"
      ],
      [
        "ye",
        "ar"
      ],
      [
        "bu",
        "y"
      ],
      [
        "ser",
        "vice"
      ],
      [
        "ch",
        "at"
      ],
      [
        "lo",
        "l"
      ],
      [
        "ke",
        "ep"
      ],
      [
        "su",
        "b"
      ],
      [
        "su",
        "re"
      ],
      [
        "cu",
        "st"
      ],
      [
        "l",
        "p"
      ],
      [
        "u",
        "se"
      ],
      [
        "v",
        "al"
      ],
      [
        "wi",
        "sh"
      ],
      [
        "ar",
        "y"
      ],
      [
        "pl",
        "ay"
      ],
      [
        "any",
        "thing"
      ],
      [
        "spe",
        "ci"
      ],
      [
        "cont",
        "act"
      ],
      [
        "s",
        "mi"
      ],
      [
        "al",
        "so"
      ],
      [
        "d",
        "r"
      ],
      [
        "st",
        "art"
      ],
      [
        "ur",
        "gent"
      ],
      [
        "wat",
        "ch"
      ],
      [
        "nok",
        "ia"
      ],
      [
        "one",
        "y"
      ],
      [
        "wor",
        "d"
      ],
      [
        "m",
        "r"
      ],
      [
        "n",
        "er"
      ],
      [
        "p",
        "art"
      ],
      [
        "an",
        "ge"
      ],
      [
        "he",
        "ll"
      ],
      [
        "pl",
        "an"
      ],
      [
        "b",
        "t"
      ],
      [
        "m",
        "ar"
      ],
      [
        "ba",
        "b"
      ],
      [
        "some",
        "thing"
      ],
      [
        "cou",
        "nt"
      ],
      [
        "k",
        "ing"
      ],
      [
        "at",
        "h"
      ],
      [
        "cou",
        "ld"
      ],
      [
        "pla",
        "ce"
      ],
      [
        "a",
        "ward"
      ],
      [
        "e",
        "st"
      ],
      [
        "fin",
        "ish"
      ],
      [
        "a",
        "u"
      ],
      [
        "so",
        "on"
      ],
      [
        "fu",
        "l"
      ],
      [
        "d",
        "y"
      ],
      [
        "g",
        "on"
      ],
      [
        "o",
        "l"
      ],
      [
        "t",
        "alk"
      ],
      [
        "lo",
        "t"
      ],
      [
        "ce",
        "ss"
      ],
      [
        "k",
        "i"
      ],
      [
        "s",
        "w"
      ],
      [
        "t",
        "c"
      ],
      [
        "ou",
        "s"
      ],
      [
        "bo",
        "y"
      ],
      [
        "w",
        "ent"
      ],
      [
        "mo",
        "b"
      ],
      [
        "fir",
        "st"
      ],
      [
        "d",
        "re"
      ],
      [
        "d",
        "at"
      ],
      [
        "j",
        "u"
      ],
      [
        "s",
        "it"
      ],
      [
        "y",
        "o"
      ],
      [
        "ar",
        "ound"
      ],
      [
        "he",
        "lp"
      ],
      [
        "gu",
        "y"
      ],
      [
        "some",
        "one"
      ],
      [
        "cust",
        "om"
      ],
      [
        "a",
        "k"
      ],
      [
        "m",
        "any"
      ],
      [
        "ou",
        "ch"
      ],
      [
        "ne",
        "xt"
      ],
      [
        "way",
        "s"
      ],
      [
        "per",
        "son"
      ],
      [
        "wait",
        "ing"
      ],
      [
        "e",
        "ar"
      ],
      [
        "t",
        "ru"
      ],
      [
        "ch",
        "ar"
      ],
      [
        "im",
        "p"
      ],
      [
        "na",
        "me"
      ],
      [
        "ton",
        "ight"
      ],
      [
        "custom",
        "er"
      ],
      [
        "b",
        "us"
      ],
      [
        "m",
        "oney"
      ],
      [
        "re",
        "al"
      ],
      [
        "le",
        "ss"
      ],
      [
        "gu",
        "d"
      ],
      [
        "gu",
        "e"
      ],
      [
        "che",
        "ck"
      ],
      [
        "n",
        "ice"
      ],
      [
        "s",
        "un"
      ],
      [
        "me",
        "an"
      ],
      [
        "co",
        "st"
      ],
      [
        "jo",
        "y"
      ],
      [
        "d",
        "ate"
      ],
      [
        "e",
        "at"
      ],
      [
        "k",
        "k"
      ],
      [
        "u",
        "re"
      ],
      [
        "an",
        "g"
      ],
      [
        "ca",
        "m"
      ],
      [
        "ch",
        "i"
      ],
      [
        "ro",
        "om"
      ],
      [
        "lea",
        "ve"
      ],
      [
        "c",
        "or"
      ],
      [
        "h",
        "u"
      ],
      [
        "n",
        "y"
      ],
      [
        "n",
        "et"
      ],
      [
        "o",
        "ther"
      ],
      [
        "p",
        "t"
      ],
      [
        "s",
        "k"
      ],
      [
        "al",
        "ways"
      ],
      [
        "li",
        "ve"
      ],
      [
        "a",
        "ble"
      ],
      [
        "g",
        "g"
      ],
      [
        "g",
        "ir"
      ],
      [
        "m",
        "ber"
      ],
      [
        "s",
        "ch"
      ],
      [
        "re",
        "ce"
      ],
      [
        "ow",
        "n"
      ],
      [
        "ha",
        "ha"
      ],
      [
        "min",
        "u"
      ],
      [
        "l",
        "ar"
      ],
      [
        "n",
        "i"
      ],
      [
        "p",
        "m"
      ],
      [
        "s",
        "at"
      ],
      [
        "y",
        "et"
      ],
      [
        "sh",
        "op"
      ],
      [
        "bo",
        "ok"
      ],
      [
        "di",
        "s"
      ],
      [
        "com",
        "ing"
      ],
      [
        "mon",
        "th"
      ],
      [
        "b",
        "it"
      ],
      [
        "d",
        "u"
      ],
      [
        "w",
        "ont"
      ],
      [
        "to",
        "ld"
      ],
      [
        "d",
        "ra"
      ],
      [
        "f",
        "un"
      ],
      [
        "f",
        "ine"
      ],
      [
        "m",
        "at"
      ],
      [
        "w",
        "he"
      ],
      [
        "ì",
        "ï"
      ],
      [
        "ar",
        "an"
      ],
      [
        "ma",
        "il"
      ],
      [
        "min",
        "d"
      ],
      [
        "you",
        "re"
      ],
      [
        "fr",
        "nd"
      ],
      [
        "speci",
        "al"
      ],
      [
        "gir",
        "l"
      ],
      [
        "h",
        "our"
      ],
      [
        "l",
        "ong"
      ],
      [
        "t",
        "ri"
      ],
      [
        "op",
        "le"
      ],
      [
        "fu",
        "ck"
      ],
      [
        "smi",
        "le"
      ],
      [
        "hell",
        "o"
      ],
      [
        "a",
        "f"
      ],
      [
        "b",
        "et"
      ],
      [
        "b",
        "ir"
      ],
      [
        "c",
        "le"
      ],
      [
        "p",
        "ay"
      ],
      [
        "t",
        "ra"
      ],
      [
        "st",
        "e"
      ],
      [
        "th",
        "k"
      ],
      [
        "pp",
        "m"
      ],
      [
        "xx",
        "x"
      ],
      [
        "happ",
        "en"
      ],
      [
        "pe",
        "ople"
      ],
      [
        "rea",
        "ch"
      ],
      [
        "minu",
        "te"
      ],
      [
        "b",
        "ed"
      ],
      [
        "d",
        "in"
      ],
      [
        "d",
        "one"
      ],
      [
        "d",
        "ri"
      ],
      [
        "s",
        "we"
      ],
      [
        "se",
        "x"
      ],
      [
        "te",
        "ed"
      ],
      [
        "get",
        "ting"
      ],
      [
        "po",
        "box"
      ],
      [
        "gu",
        "aran"
      ],
      [
        "stu",
        "ff"
      ],
      [
        "guaran",
        "teed"
      ],
      [
        "l",
        "un"
      ],
      [
        "r",
        "ate"
      ],
      [
        "s",
        "et"
      ],
      [
        "me",
        "d"
      ],
      [
        "me",
        "mber"
      ],
      [
        "ou",
        "se"
      ],
      [
        "be",
        "st"
      ],
      [
        "cla",
        "ss"
      ],
      [
        "qu",
        "est"
      ],
      [
        "off",
        "er"
      ],
      [
        "thou",
        "ght"
      ],
      [
        "c",
        "ra"
      ],
      [
        "e",
        "ve"
      ],
      [
        "le",
        "ct"
      ],
      [
        "he",
        "art"
      ],
      [
        "vi",
        "de"
      ],
      [
        "h",
        "ouse"
      ],
      [
        "re",
        "t"
      ],
      [
        "lo",
        "se"
      ],
      [
        "li",
        "day"
      ],
      [
        "ho",
        "liday"
      ],
      [
        "sc",
        "ri"
      ],
      [
        "hav",
        "ent"
      ],
      [
        "dra",
        "w"
      ],
      [
        "lun",
        "ch"
      ],
      [
        "h",
        "r"
      ],
      [
        "l",
        "ing"
      ],
      [
        "en",
        "joy"
      ],
      [
        "lo",
        "w"
      ],
      [
        "wi",
        "th"
      ],
      [
        "jo",
        "b"
      ],
      [
        "ga",
        "me"
      ],
      [
        "d",
        "en"
      ],
      [
        "er",
        "a"
      ],
      [
        "de",
        "c"
      ],
      [
        "pro",
        "ble"
      ],
      [
        "h",
        "al"
      ],
      [
        "o",
        "re"
      ],
      [
        "y",
        "up"
      ],
      [
        "go",
        "d"
      ],
      [
        "sh",
        "it"
      ],
      [
        "ne",
        "ver"
      ],
      [
        "ma",
        "s"
      ],
      [
        "vi",
        "e"
      ],
      [
        "how",
        "s"
      ],
      [
        "whe",
        "re"
      ],
      [
        "bet",
        "ter"
      ],
      [
        "d",
        "ar"
      ],
      [
        "w",
        "r"
      ],
      [
        "co",
        "ol"
      ],
      [
        "op",
        "t"
      ],
      [
        "as",
        "y"
      ],
      [
        "po",
        "ly"
      ],
      [
        "ac",
        "count"
      ],
      [
        "meet",
        "ing"
      ],
      [
        "try",
        "ing"
      ],
      [
        "gue",
        "ss"
      ],
      [
        "proble",
        "m"
      ],
      [
        "b",
        "r"
      ],
      [
        "b",
        "ro"
      ],
      [
        "h",
        "ur"
      ],
      [
        "v",
        "ed"
      ],
      [
        "w",
        "on"
      ],
      [
        "in",
        "c"
      ],
      [
        "ou",
        "gh"
      ],
      [
        "ca",
        "l"
      ],
      [
        "co",
        "z"
      ],
      [
        "od",
        "y"
      ],
      [
        "fu",
        "ll"
      ],
      [
        "swe",
        "et"
      ],
      [
        "a",
        "o"
      ],
      [
        "m",
        "ate"
      ],
      [
        "s",
        "ur"
      ],
      [
        "t",
        "le"
      ],
      [
        "ch",
        "ance"
      ],
      [
        "lo",
        "ad"
      ],
      [
        "wor",
        "ld"
      ],
      [
        "bi",
        "g"
      ],
      [
        "week",
        "end"
      ],
      [
        "bir",
        "th"
      ],
      [
        "vide",
        "o"
      ],
      [
        "hal",
        "f"
      ],
      [
        "d",
        "ad"
      ],
      [
        "i",
        "z"
      ],
      [
        "j",
        "e"
      ],
      [
        "sh",
        "ip"
      ],
      [
        "no",
        "on"
      ],
      [
        "late",
        "st"
      ],
      [
        "sub",
        "scri"
      ],
      [
        "rece",
        "ive"
      ],
      [
        "b",
        "ring"
      ],
      [
        "v",
        "ouch"
      ],
      [
        "re",
        "ct"
      ],
      [
        "wh",
        "ats"
      ],
      [
        "won",
        "der"
      ],
      [
        "vouch",
        "er"
      ],
      [
        "i",
        "e"
      ],
      [
        "p",
        "ar"
      ],
      [
        "st",
        "ay"
      ],
      [
        "st",
        "and"
      ],
      [
        "ur",
        "n"
      ],
      [
        "he",
        "ad"
      ],
      [
        "no",
        "thing"
      ],
      [
        "pi",
        "c"
      ],
      [
        "si",
        "de"
      ],
      [
        "lu",
        "v"
      ],
      [
        "fa",
        "ce"
      ],
      [
        "pu",
        "t"
      ],
      [
        "pr",
        "in"
      ],
      [
        "award",
        "ed"
      ],
      [
        "cam",
        "era"
      ],
      [
        "b",
        "ody"
      ],
      [
        "k",
        "in"
      ],
      [
        "n",
        "g"
      ],
      [
        "p",
        "ing"
      ],
      [
        "s",
        "ir"
      ],
      [
        "t",
        "u"
      ],
      [
        "å",
        "õ"
      ],
      [
        "re",
        "st"
      ],
      [
        "an",
        "other"
      ],
      [
        "lo",
        "s"
      ],
      [
        "li",
        "ao"
      ],
      [
        "jo",
        "in"
      ],
      [
        "ring",
        "tone"
      ],
      [
        "land",
        "line"
      ],
      [
        "bab",
        "y"
      ],
      [
        "quest",
        "ion"
      ],
      [
        "b",
        "ad"
      ],
      [
        "h",
        "and"
      ],
      [
        "j",
        "us"
      ],
      [
        "l",
        "it"
      ],
      [
        "n",
        "ite"
      ],
      [
        "co",
        "de"
      ],
      [
        "li",
        "st"
      ],
      [
        "he",
        "ar"
      ],
      [
        "qu",
        "ite"
      ],
      [
        "oo",
        "l"
      ],
      [
        "ki",
        "ss"
      ],
      [
        "din",
        "ner"
      ],
      [
        "birth",
        "day"
      ],
      [
        "a",
        "g"
      ],
      [
        "a",
        "p"
      ],
      [
        "t",
        "r"
      ],
      [
        "t",
        "en"
      ],
      [
        "an",
        "k"
      ],
      [
        "ou",
        "ble"
      ],
      [
        "mi",
        "ght"
      ],
      [
        "po",
        "st"
      ],
      [
        "con",
        "gr"
      ],
      [
        "the",
        "re"
      ],
      [
        "a",
        "i"
      ],
      [
        "d",
        "et"
      ],
      [
        "e",
        "e"
      ],
      [
        "g",
        "n"
      ],
      [
        "r",
        "un"
      ],
      [
        "u",
        "k"
      ],
      [
        "re",
        "member"
      ],
      [
        "it",
        "ed"
      ],
      [
        "wor",
        "ry"
      ],
      [
        "wa",
        "ke"
      ],
      [
        "spe",
        "ak"
      ],
      [
        "for",
        "got"
      ],
      [
        "act",
        "u"
      ],
      [
        "colle",
        "ct"
      ],
      [
        "app",
        "ly"
      ],
      [
        "watch",
        "ing"
      ],
      [
        "net",
        "work"
      ],
      [
        "a",
        "ight"
      ],
      [
        "c",
        "ent"
      ],
      [
        "o",
        "la"
      ],
      [
        "s",
        "in"
      ],
      [
        "t",
        "v"
      ],
      [
        "call",
        "ed"
      ],
      [
        "su",
        "pp"
      ],
      [
        "po",
        "int"
      ],
      [
        "pro",
        "bab"
      ],
      [
        "ear",
        "ly"
      ],
      [
        "af",
        "ter"
      ],
      [
        "probab",
        "ly"
      ],
      [
        "b",
        "lo"
      ],
      [
        "c",
        "y"
      ],
      [
        "d",
        "on"
      ],
      [
        "s",
        "ound"
      ],
      [
        "t",
        "wo"
      ],
      [
        "w",
        "alk"
      ],
      [
        "z",
        "y"
      ],
      [
        "in",
        "v"
      ],
      [
        "an",
        "sw"
      ],
      [
        "en",
        "g"
      ],
      [
        "or",
        "ange"
      ],
      [
        "sh",
        "all"
      ],
      [
        "li",
        "ght"
      ],
      [
        "te",
        "mp"
      ],
      [
        "pa",
        "in"
      ],
      [
        "than",
        "x"
      ],
      [
        "may",
        "be"
      ],
      [
        "prin",
        "cess"
      ],
      [
        "actu",
        "ally"
      ],
      [
        "e",
        "asy"
      ],
      [
        "j",
        "a"
      ],
      [
        "m",
        "um"
      ],
      [
        "s",
        "en"
      ],
      [
        "u",
        "gh"
      ],
      [
        "v",
        "d"
      ],
      [
        "st",
        "or"
      ],
      [
        "le",
        "ft"
      ],
      [
        "se",
        "lect"
      ],
      [
        "it",
        "ion"
      ],
      [
        "sh",
        "a"
      ],
      [
        "li",
        "ver"
      ],
      [
        "te",
        "l"
      ],
      [
        "mo",
        "vie"
      ],
      [
        "wi",
        "fe"
      ],
      [
        "xx",
        "xx"
      ],
      [
        "mu",
        "st"
      ],
      [
        "lu",
        "ck"
      ],
      [
        "gi",
        "ft"
      ],
      [
        "off",
        "ice"
      ],
      [
        "dun",
        "no"
      ],
      [
        "dre",
        "ss"
      ],
      [
        "shop",
        "ping"
      ],
      [
        "answ",
        "er"
      ],
      [
        "e",
        "m"
      ],
      [
        "h",
        "un"
      ],
      [
        "n",
        "or"
      ],
      [
        "p",
        "le"
      ],
      [
        "s",
        "ed"
      ],
      [
        "t",
        "mr"
      ],
      [
        "re",
        "n"
      ],
      [
        "le",
        "h"
      ],
      [
        "con",
        "d"
      ],
      [
        "even",
        "ing"
      ],
      [
        "dre",
        "am"
      ],
      [
        "hur",
        "t"
      ],
      [
        "lit",
        "tle"
      ],
      [
        "b",
        "lu"
      ],
      [
        "g",
        "in"
      ],
      [
        "j",
        "i"
      ],
      [
        "p",
        "ound"
      ],
      [
        "s",
        "ing"
      ],
      [
        "t",
        "own"
      ],
      [
        "y",
        "r"
      ],
      [
        "z",
        "z"
      ],
      [
        "en",
        "ce"
      ],
      [
        "en",
        "ough"
      ],
      [
        "it",
        "al"
      ],
      [
        "sh",
        "es"
      ],
      [
        "te",
        "st"
      ],
      [
        "ent",
        "ry"
      ],
      [
        "ma",
        "de"
      ],
      [
        "as",
        "on"
      ],
      [
        "any",
        "way"
      ],
      [
        "work",
        "ing"
      ],
      [
        "do",
        "es"
      ],
      [
        "every",
        "thing"
      ],
      [
        "thou",
        "gh"
      ],
      [
        "look",
        "ing"
      ],
      [
        "ath",
        "er"
      ],
      [
        "sch",
        "ool"
      ],
      [
        "after",
        "noon"
      ],
      [
        "select",
        "ed"
      ],
      [
        "a",
        "il"
      ],
      [
        "c",
        "red"
      ],
      [
        "e",
        "i"
      ],
      [
        "g",
        "y"
      ],
      [
        "t",
        "op"
      ],
      [
        "v",
        "o"
      ],
      [
        "w",
        "ho"
      ],
      [
        "x",
        "mas"
      ],
      [
        "ll",
        "y"
      ],
      [
        "co",
        "l"
      ],
      [
        "sh",
        "e"
      ],
      [
        "call",
        "er"
      ],
      [
        "ent",
        "i"
      ],
      [
        "ho",
        "ld"
      ],
      [
        "wi",
        "f"
      ],
      [
        "ask",
        "ed"
      ],
      [
        "miss",
        "ing"
      ],
      [
        "wh",
        "en"
      ],
      [
        "dr",
        "ink"
      ],
      [
        "tru",
        "e"
      ],
      [
        "sex",
        "y"
      ],
      [
        "with",
        "out"
      ],
      [
        "det",
        "ail"
      ],
      [
        "a",
        "ch"
      ],
      [
        "b",
        "b"
      ],
      [
        "c",
        "an"
      ],
      [
        "g",
        "ra"
      ],
      [
        "h",
        "mm"
      ],
      [
        "m",
        "us"
      ],
      [
        "n",
        "w"
      ],
      [
        "p",
        "min"
      ],
      [
        "in",
        "di"
      ],
      [
        "st",
        "r"
      ],
      [
        "ar",
        "i"
      ],
      [
        "ar",
        "m"
      ],
      [
        "ar",
        "ch"
      ],
      [
        "le",
        "d"
      ],
      [
        "ca",
        "me"
      ],
      [
        "se",
        "c"
      ],
      [
        "de",
        "liver"
      ],
      [
        "ok",
        "ay"
      ],
      [
        "ti",
        "l"
      ],
      [
        "lat",
        "ion"
      ],
      [
        "pri",
        "ce"
      ],
      [
        "lu",
        "b"
      ],
      [
        "el",
        "se"
      ],
      [
        "ort",
        "ant"
      ],
      [
        "pre",
        "ss"
      ],
      [
        "wo",
        "t"
      ],
      [
        "char",
        "ge"
      ],
      [
        "imp",
        "ortant"
      ],
      [
        "sin",
        "ce"
      ],
      [
        "a",
        "ir"
      ],
      [
        "a",
        "bt"
      ],
      [
        "b",
        "at"
      ],
      [
        "d",
        "ouble"
      ],
      [
        "f",
        "fe"
      ],
      [
        "o",
        "t"
      ],
      [
        "r",
        "ite"
      ],
      [
        "s",
        "mo"
      ],
      [
        "v",
        "ate"
      ],
      [
        "w",
        "en"
      ],
      [
        "se",
        "arch"
      ],
      [
        "im",
        "al"
      ],
      [
        "ck",
        "et"
      ],
      [
        "ti",
        "ll"
      ],
      [
        "ha",
        "ir"
      ],
      [
        "want",
        "ed"
      ],
      [
        "miss",
        "ed"
      ],
      [
        "up",
        "date"
      ],
      [
        "colle",
        "ction"
      ],
      [
        "val",
        "id"
      ],
      [
        "less",
        "on"
      ],
      [
        "does",
        "nt"
      ],
      [
        "col",
        "our"
      ],
      [
        "a",
        "st"
      ],
      [
        "a",
        "way"
      ],
      [
        "a",
        "ft"
      ],
      [
        "c",
        "lub"
      ],
      [
        "g",
        "b"
      ],
      [
        "h",
        "l"
      ],
      [
        "s",
        "imp"
      ],
      [
        "t",
        "or"
      ],
      [
        "re",
        "e"
      ],
      [
        "st",
        "o"
      ],
      [
        "ch",
        "ange"
      ],
      [
        "op",
        "er"
      ],
      [
        "to",
        "t"
      ],
      [
        "pl",
        "z"
      ],
      [
        "pl",
        "us"
      ],
      [
        "bo",
        "red"
      ],
      [
        "us",
        "ed"
      ],
      [
        "bu",
        "t"
      ],
      [
        "for",
        "m"
      ],
      [
        "ation",
        "al"
      ],
      [
        "ju",
        "z"
      ],
      [
        "dec",
        "imal"
      ],
      [
        "opt",
        "out"
      ],
      [
        "b",
        "s"
      ],
      [
        "b",
        "rea"
      ],
      [
        "c",
        "ur"
      ],
      [
        "d",
        "ing"
      ],
      [
        "l",
        "f"
      ],
      [
        "o",
        "so"
      ],
      [
        "p",
        "ra"
      ],
      [
        "s",
        "low"
      ],
      [
        "v",
        "y"
      ],
      [
        "w",
        "w"
      ],
      [
        "w",
        "ed"
      ],
      [
        "on",
        "line"
      ],
      [
        "at",
        "temp"
      ],
      [
        "go",
        "in"
      ],
      [
        "al",
        "right"
      ],
      [
        "ke",
        "y"
      ],
      [
        "un",
        "der"
      ],
      [
        "mo",
        "ve"
      ],
      [
        "ho",
        "t"
      ],
      [
        "be",
        "au"
      ],
      [
        "ye",
        "ster"
      ],
      [
        "sa",
        "w"
      ],
      [
        "week",
        "ly"
      ],
      [
        "pu",
        "b"
      ],
      [
        "dr",
        "op"
      ],
      [
        "du",
        "de"
      ],
      [
        "stor",
        "y"
      ],
      [
        "mus",
        "ic"
      ],
      [
        "attemp",
        "t"
      ],
      [
        "yester",
        "day"
      ],
      [
        "c",
        "um"
      ],
      [
        "g",
        "er"
      ],
      [
        "g",
        "al"
      ],
      [
        "l",
        "in"
      ],
      [
        "m",
        "th"
      ],
      [
        "n",
        "at"
      ],
      [
        "r",
        "c"
      ],
      [
        "s",
        "y"
      ],
      [
        "s",
        "ion"
      ],
      [
        "t",
        "sc"
      ],
      [
        "re",
        "r"
      ],
      [
        "re",
        "s"
      ],
      [
        "at",
        "or"
      ],
      [
        "le",
        "i"
      ],
      [
        "de",
        "l"
      ],
      [
        "op",
        "en"
      ],
      [
        "ha",
        "f"
      ],
      [
        "ma",
        "king"
      ],
      [
        "lt",
        "decimal"
      ],
      [
        "mi",
        "ly"
      ],
      [
        "be",
        "li"
      ],
      [
        "ra",
        "in"
      ],
      [
        "di",
        "rect"
      ],
      [
        "friend",
        "ship"
      ],
      [
        "feel",
        "ing"
      ],
      [
        "fo",
        "od"
      ],
      [
        "tri",
        "p"
      ],
      [
        "cred",
        "it"
      ],
      [
        "tsc",
        "s"
      ],
      [
        "ltdecimal",
        "gt"
      ],
      [
        "b",
        "la"
      ],
      [
        "d",
        "own"
      ],
      [
        "f",
        "one"
      ],
      [
        "h",
        "ard"
      ],
      [
        "j",
        "ay"
      ],
      [
        "m",
        "y"
      ],
      [
        "n",
        "ational"
      ],
      [
        "p",
        "ort"
      ],
      [
        "s",
        "ad"
      ],
      [
        "s",
        "po"
      ],
      [
        "t",
        "ty"
      ],
      [
        "v",
        "en"
      ],
      [
        "ll",
        "ow"
      ],
      [
        "or",
        "der"
      ],
      [
        "ca",
        "use"
      ],
      [
        "se",
        "cond"
      ],
      [
        "ri",
        "ed"
      ],
      [
        "ad",
        "dress"
      ],
      [
        "lt",
        "d"
      ],
      [
        "di",
        "ff"
      ],
      [
        "sa",
        "e"
      ],
      [
        "cu",
        "t"
      ],
      [
        "fa",
        "mily"
      ],
      [
        "val",
        "u"
      ],
      [
        "play",
        "er"
      ],
      [
        "au",
        "ction"
      ],
      [
        "tri",
        "ed"
      ],
      [
        "dri",
        "ving"
      ],
      [
        "list",
        "en"
      ],
      [
        "ei",
        "ther"
      ],
      [
        "deliver",
        "y"
      ],
      [
        "brea",
        "k"
      ],
      [
        "a",
        "a"
      ],
      [
        "b",
        "on"
      ],
      [
        "c",
        "ard"
      ],
      [
        "c",
        "lose"
      ],
      [
        "f",
        "an"
      ],
      [
        "f",
        "ant"
      ],
      [
        "m",
        "ur"
      ],
      [
        "m",
        "ad"
      ],
      [
        "p",
        "ur"
      ],
      [
        "p",
        "msg"
      ],
      [
        "w",
        "id"
      ],
      [
        "st",
        "y"
      ],
      [
        "me",
        "di"
      ],
      [
        "li",
        "m"
      ],
      [
        "call",
        "ing"
      ],
      [
        "ti",
        "ful"
      ],
      [
        "to",
        "ge"
      ],
      [
        "mo",
        "m"
      ],
      [
        "pa",
        "ss"
      ],
      [
        "stu",
        "dy"
      ],
      [
        "va",
        "i"
      ],
      [
        "sleep",
        "ing"
      ],
      [
        "bus",
        "y"
      ],
      [
        "chi",
        "ld"
      ],
      [
        "tra",
        "in"
      ],
      [
        "bro",
        "ther"
      ],
      [
        "subscri",
        "be"
      ],
      [
        "smo",
        "ke"
      ],
      [
        "beau",
        "tiful"
      ],
      [
        "beli",
        "eve"
      ],
      [
        "bon",
        "us"
      ],
      [
        "toge",
        "ther"
      ],
      [
        "a",
        "b"
      ],
      [
        "a",
        "wait"
      ],
      [
        "b",
        "ar"
      ],
      [
        "b",
        "ank"
      ],
      [
        "f",
        "la"
      ],
      [
        "f",
        "il"
      ],
      [
        "g",
        "d"
      ],
      [
        "h",
        "it"
      ],
      [
        "k",
        "ed"
      ],
      [
        "o",
        "ld"
      ],
      [
        "t",
        "s"
      ],
      [
        "t",
        "reat"
      ],
      [
        "t",
        "ouch"
      ],
      [
        "re",
        "et"
      ],
      [
        "re",
        "ason"
      ],
      [
        "th",
        "at"
      ],
      [
        "le",
        "te"
      ],
      [
        "al",
        "one"
      ],
      [
        "se",
        "lf"
      ],
      [
        "it",
        "s"
      ],
      [
        "ri",
        "st"
      ],
      [
        "ok",
        "ie"
      ],
      [
        "to",
        "ok"
      ],
      [
        "we",
        "l"
      ],
      [
        "ma",
        "x"
      ],
      [
        "su",
        "ite"
      ],
      [
        "min",
        "e"
      ],
      [
        "lea",
        "ving"
      ],
      [
        "no",
        "e"
      ],
      [
        "si",
        "l"
      ],
      [
        "new",
        "s"
      ],
      [
        "pa",
        "rent"
      ],
      [
        "ex",
        "pi"
      ],
      [
        "oo",
        "t"
      ],
      [
        "say",
        "ing"
      ],
      [
        "for",
        "get"
      ],
      [
        "cont",
        "ent"
      ],
      [
        "smi",
        "ling"
      ],
      [
        "ous",
        "ly"
      ],
      [
        "kk",
        "u"
      ],
      [
        "hu",
        "h"
      ],
      [
        "mat",
        "ch"
      ],
      [
        "dri",
        "ve"
      ],
      [
        "sec",
        "ret"
      ],
      [
        "a",
        "we"
      ],
      [
        "a",
        "bi"
      ],
      [
        "a",
        "vai"
      ],
      [
        "b",
        "or"
      ],
      [
        "b",
        "ill"
      ],
      [
        "c",
        "d"
      ],
      [
        "c",
        "m"
      ],
      [
        "c",
        "n"
      ],
      [
        "c",
        "er"
      ],
      [
        "c",
        "at"
      ],
      [
        "e",
        "mail"
      ],
      [
        "f",
        "ound"
      ],
      [
        "h",
        "or"
      ],
      [
        "i",
        "de"
      ],
      [
        "i",
        "ck"
      ],
      [
        "m",
        "en"
      ],
      [
        "m",
        "al"
      ],
      [
        "m",
        "id"
      ],
      [
        "t",
        "in"
      ],
      [
        "u",
        "lation"
      ],
      [
        "w",
        "it"
      ],
      [
        "y",
        "ar"
      ],
      [
        "an",
        "s"
      ],
      [
        "st",
        "ar"
      ],
      [
        "ch",
        "a"
      ],
      [
        "lo",
        "ver"
      ],
      [
        "lo",
        "ving"
      ],
      [
        "ent",
        "er"
      ],
      [
        "to",
        "mo"
      ],
      [
        "id",
        "ed"
      ],
      [
        "ta",
        "king"
      ],
      [
        "sp",
        "on"
      ],
      [
        "vi",
        "sit"
      ],
      [
        "wi",
        "l"
      ],
      [
        "fin",
        "al"
      ],
      [
        "pro",
        "b"
      ],
      [
        "pri",
        "vate"
      ],
      [
        "think",
        "ing"
      ],
      [
        "qu",
        "iz"
      ],
      [
        "fa",
        "st"
      ],
      [
        "every",
        "one"
      ],
      [
        "ser",
        "i"
      ],
      [
        "fo",
        "re"
      ],
      [
        "start",
        "ed"
      ],
      [
        "finish",
        "ed"
      ],
      [
        "kin",
        "d"
      ],
      [
        "congr",
        "ats"
      ],
      [
        "mth",
        "s"
      ],
      [
        "awe",
        "some"
      ],
      [
        "avai",
        "la"
      ],
      [
        "c",
        "ine"
      ],
      [
        "g",
        "as"
      ],
      [
        "j",
        "an"
      ],
      [
        "k",
        "id"
      ],
      [
        "p",
        "ed"
      ],
      [
        "s",
        "now"
      ],
      [
        "s",
        "ms"
      ],
      [
        "u",
        "lt"
      ],
      [
        "u",
        "su"
      ],
      [
        "re",
        "ve"
      ],
      [
        "re",
        "de"
      ],
      [
        "re",
        "spon"
      ],
      [
        "st",
        "ate"
      ],
      [
        "en",
        "er"
      ],
      [
        "ch",
        "o"
      ],
      [
        "ch",
        "oo"
      ],
      [
        "it",
        "ing"
      ],
      [
        "ent",
        "ine"
      ],
      [
        "ne",
        "va"
      ],
      [
        "la",
        "ugh"
      ],
      [
        "un",
        "subscribe"
      ],
      [
        "ate",
        "ver"
      ],
      [
        "wor",
        "th"
      ],
      [
        "di",
        "e"
      ],
      [
        "di",
        "st"
      ],
      [
        "ine",
        "ss"
      ],
      [
        "any",
        "one"
      ],
      [
        "si",
        "ster"
      ],
      [
        "cu",
        "lt"
      ],
      [
        "pa",
        "per"
      ],
      [
        "up",
        "d"
      ],
      [
        "comp",
        "any"
      ],
      [
        "comp",
        "lete"
      ],
      [
        "rent",
        "ly"
      ],
      [
        "val",
        "entine"
      ],
      [
        "speci",
        "ally"
      ],
      [
        "ang",
        "ry"
      ],
      [
        "chi",
        "kku"
      ],
      [
        "gg",
        "ing"
      ],
      [
        "je",
        "ct"
      ],
      [
        "simp",
        "le"
      ],
      [
        "oper",
        "ator"
      ],
      [
        "down",
        "load"
      ],
      [
        "availa",
        "ble"
      ],
      [
        "state",
        "ment"
      ],
      [
        "f",
        "y"
      ],
      [
        "f",
        "ar"
      ],
      [
        "h",
        "m"
      ],
      [
        "k",
        "nw"
      ],
      [
        "s",
        "co"
      ],
      [
        "s",
        "im"
      ],
      [
        "s",
        "ong"
      ],
      [
        "w",
        "j"
      ],
      [
        "in",
        "ter"
      ],
      [
        "in",
        "fo"
      ],
      [
        "re",
        "g"
      ],
      [
        "re",
        "am"
      ],
      [
        "st",
        "a"
      ],
      [
        "th",
        "o"
      ],
      [
        "ch",
        "rist"
      ],
      [
        "et",
        "c"
      ],
      [
        "se",
        "ll"
      ],
      [
        "ss",
        "i"
      ],
      [
        "op",
        "e"
      ],
      [
        "end",
        "ing"
      ],
      [
        "id",
        "enti"
      ],
      [
        "bo",
        "o"
      ],
      [
        "cou",
        "r"
      ],
      [
        "con",
        "fir"
      ],
      [
        "for",
        "ward"
      ],
      [
        "win",
        "ner"
      ],
      [
        "wh",
        "atever"
      ],
      [
        "rent",
        "al"
      ],
      [
        "fi",
        "x"
      ],
      [
        "ty",
        "pe"
      ],
      [
        "car",
        "los"
      ],
      [
        "is",
        "nt"
      ],
      [
        "dat",
        "ing"
      ],
      [
        "luck",
        "y"
      ],
      [
        "under",
        "stand"
      ],
      [
        "rc",
        "vd"
      ],
      [
        "fan",
        "cy"
      ],
      [
        "expi",
        "res"
      ],
      [
        "rede",
        "e"
      ],
      [
        "choo",
        "se"
      ],
      [
        "a",
        "de"
      ],
      [
        "b",
        "out"
      ],
      [
        "b",
        "ath"
      ],
      [
        "c",
        "ti"
      ],
      [
        "d",
        "ru"
      ],
      [
        "e",
        "xt"
      ],
      [
        "f",
        "ro"
      ],
      [
        "g",
        "one"
      ],
      [
        "i",
        "ci"
      ],
      [
        "p",
        "et"
      ],
      [
        "s",
        "ma"
      ],
      [
        "w",
        "as"
      ],
      [
        "û",
        "_"
      ],
      [
        "in",
        "form"
      ],
      [
        "en",
        "na"
      ],
      [
        "at",
        "ulation"
      ],
      [
        "se",
        "a"
      ],
      [
        "li",
        "er"
      ],
      [
        "te",
        "ach"
      ],
      [
        "ce",
        "ll"
      ],
      [
        "ur",
        "day"
      ],
      [
        "ti",
        "cket"
      ],
      [
        "un",
        "cle"
      ],
      [
        "un",
        "redee"
      ],
      [
        "to",
        "y"
      ],
      [
        "any",
        "time"
      ],
      [
        "lea",
        "st"
      ],
      [
        "love",
        "ly"
      ],
      [
        "mu",
        "z"
      ],
      [
        "sor",
        "t"
      ],
      [
        "mobile",
        "upd"
      ],
      [
        "bu",
        "d"
      ],
      [
        "fri",
        "day"
      ],
      [
        "ex",
        "am"
      ],
      [
        "comp",
        "u"
      ],
      [
        "fr",
        "m"
      ],
      [
        "fi",
        "er"
      ],
      [
        "fo",
        "llow"
      ],
      [
        "colle",
        "ge"
      ],
      [
        "sm",
        "th"
      ],
      [
        "part",
        "y"
      ],
      [
        "boy",
        "toy"
      ],
      [
        "cor",
        "der"
      ],
      [
        "sat",
        "urday"
      ],
      [
        "happen",
        "ed"
      ],
      [
        "cra",
        "zy"
      ],
      [
        "dec",
        "ided"
      ],
      [
        "sur",
        "pri"
      ],
      [
        "congr",
        "atulation"
      ],
      [
        "wel",
        "come"
      ],
      [
        "identi",
        "fier"
      ],
      [
        "dru",
        "g"
      ],
      [
        "unredee",
        "med"
      ],
      [
        "a",
        "ce"
      ],
      [
        "b",
        "al"
      ],
      [
        "b",
        "ri"
      ],
      [
        "b",
        "day"
      ],
      [
        "c",
        "ro"
      ],
      [
        "d",
        "nt"
      ],
      [
        "g",
        "ar"
      ],
      [
        "g",
        "suite"
      ],
      [
        "h",
        "gsuite"
      ],
      [
        "i",
        "se"
      ],
      [
        "n",
        "ed"
      ],
      [
        "n",
        "ope"
      ],
      [
        "p",
        "ho"
      ],
      [
        "s",
        "ou"
      ],
      [
        "in",
        "te"
      ],
      [
        "st",
        "ore"
      ],
      [
        "at",
        "ed"
      ],
      [
        "ch",
        "enna"
      ],
      [
        "sh",
        "i"
      ],
      [
        "sh",
        "ort"
      ],
      [
        "ss",
        "ed"
      ],
      [
        "ce",
        "pt"
      ],
      [
        "de",
        "al"
      ],
      [
        "de",
        "ci"
      ],
      [
        "ok",
        "ing"
      ],
      [
        "he",
        "e"
      ],
      [
        "ad",
        "d"
      ],
      [
        "mo",
        "re"
      ],
      [
        "mo",
        "st"
      ],
      [
        "so",
        "l"
      ],
      [
        "ate",
        "ly"
      ],
      [
        "good",
        "morning"
      ],
      [
        "pi",
        "x"
      ],
      [
        "per",
        "i"
      ],
      [
        "fin",
        "ally"
      ],
      [
        "cou",
        "k"
      ],
      [
        "pro",
        "ject"
      ],
      [
        "ter",
        "m"
      ],
      [
        "con",
        "ne"
      ],
      [
        "row",
        "wj"
      ],
      [
        "you",
        "ve"
      ],
      [
        "out",
        "side"
      ],
      [
        "pre",
        "tty"
      ],
      [
        "land",
        "s"
      ],
      [
        "son",
        "y"
      ],
      [
        "sun",
        "day"
      ],
      [
        "cam",
        "corder"
      ],
      [
        "cor",
        "rect"
      ],
      [
        "sk",
        "y"
      ],
      [
        "frnd",
        "s"
      ],
      [
        "fuck",
        "ing"
      ],
      [
        "cle",
        "an"
      ],
      [
        "ret",
        "urn"
      ],
      [
        "ore",
        "di"
      ],
      [
        "dar",
        "lin"
      ],
      [
        "wr",
        "ong"
      ],
      [
        "wonder",
        "ful"
      ],
      [
        "ple",
        "as"
      ],
      [
        "blu",
        "e"
      ],
      [
        "lim",
        "ited"
      ],
      [
        "cour",
        "se"
      ],
      [
        "hgsuite",
        "lands"
      ],
      [
        "inte",
        "rest"
      ],
      [
        "chenna",
        "i"
      ],
      [
        "rowwj",
        "hl"
      ],
      [
        "a",
        "re"
      ],
      [
        "a",
        "go"
      ],
      [
        "b",
        "l"
      ],
      [
        "f",
        "ing"
      ],
      [
        "f",
        "ill"
      ],
      [
        "f",
        "ight"
      ],
      [
        "f",
        "ather"
      ],
      [
        "f",
        "oot"
      ],
      [
        "g",
        "ry"
      ],
      [
        "h",
        "h"
      ],
      [
        "i",
        "cult"
      ],
      [
        "p",
        "en"
      ],
      [
        "p",
        "ly"
      ],
      [
        "s",
        "day"
      ],
      [
        "u",
        "u"
      ],
      [
        "v",
        "od"
      ],
      [
        "at",
        "ing"
      ],
      [
        "th",
        "in"
      ],
      [
        "me",
        "ant"
      ],
      [
        "ou",
        "n"
      ],
      [
        "ca",
        "se"
      ],
      [
        "co",
        "mm"
      ],
      [
        "lo",
        "g"
      ],
      [
        "sh",
        "u"
      ],
      [
        "li",
        "ce"
      ],
      [
        "ur",
        "b"
      ],
      [
        "ti",
        "red"
      ],
      [
        "un",
        "i"
      ],
      [
        "un",
        "limited"
      ],
      [
        "mo",
        "tor"
      ],
      [
        "ma",
        "h"
      ],
      [
        "ma",
        "in"
      ],
      [
        "ro",
        "ck"
      ],
      [
        "ld",
        "n"
      ],
      [
        "fre",
        "n"
      ],
      [
        "po",
        "ssi"
      ],
      [
        "free",
        "msg"
      ],
      [
        "wi",
        "se"
      ],
      [
        "sa",
        "va"
      ],
      [
        "see",
        "ing"
      ],
      [
        "happ",
        "iness"
      ],
      [
        "read",
        "ing"
      ],
      [
        "fa",
        "v"
      ],
      [
        "tell",
        "ing"
      ],
      [
        "you",
        "ll"
      ],
      [
        "gr",
        "in"
      ],
      [
        "wk",
        "ly"
      ],
      [
        "mr",
        "ng"
      ],
      [
        "mar",
        "k"
      ],
      [
        "mar",
        "ch"
      ],
      [
        "ear",
        "lier"
      ],
      [
        "par",
        "k"
      ],
      [
        "åõ",
        "t"
      ],
      [
        "supp",
        "o"
      ],
      [
        "supp",
        "ort"
      ],
      [
        "hun",
        "gry"
      ],
      [
        "who",
        "le"
      ],
      [
        "diff",
        "icult"
      ],
      [
        "mur",
        "de"
      ],
      [
        "confir",
        "m"
      ],
      [
        "compu",
        "ter"
      ],
      [
        "sava",
        "mob"
      ],
      [
        "a",
        "rea"
      ],
      [
        "b",
        "in"
      ],
      [
        "c",
        "r"
      ],
      [
        "c",
        "lo"
      ],
      [
        "e",
        "g"
      ],
      [
        "f",
        "er"
      ],
      [
        "f",
        "li"
      ],
      [
        "g",
        "ed"
      ],
      [
        "h",
        "n"
      ],
      [
        "i",
        "g"
      ],
      [
        "k",
        "a"
      ],
      [
        "l",
        "k"
      ],
      [
        "l",
        "vy"
      ],
      [
        "o",
        "f"
      ],
      [
        "p",
        "end"
      ],
      [
        "p",
        "as"
      ],
      [
        "p",
        "tion"
      ],
      [
        "s",
        "la"
      ],
      [
        "t",
        "urn"
      ],
      [
        "w",
        "t"
      ],
      [
        "w",
        "ill"
      ],
      [
        "x",
        "y"
      ],
      [
        "y",
        "al"
      ],
      [
        "û",
        "t"
      ],
      [
        "in",
        "st"
      ],
      [
        "re",
        "su"
      ],
      [
        "re",
        "ward"
      ],
      [
        "ll",
        "a"
      ],
      [
        "an",
        "e"
      ],
      [
        "st",
        "up"
      ],
      [
        "th",
        "is"
      ],
      [
        "al",
        "most"
      ],
      [
        "se",
        "en"
      ],
      [
        "co",
        "ver"
      ],
      [
        "co",
        "min"
      ],
      [
        "ve",
        "y"
      ],
      [
        "lo",
        "st"
      ],
      [
        "lo",
        "ved"
      ],
      [
        "li",
        "ment"
      ],
      [
        "ss",
        "u"
      ],
      [
        "te",
        "red"
      ],
      [
        "de",
        "ep"
      ],
      [
        "ne",
        "ar"
      ],
      [
        "mo",
        "ment"
      ],
      [
        "ge",
        "st"
      ],
      [
        "ct",
        "or"
      ],
      [
        "fe",
        "lt"
      ],
      [
        "di",
        "ffe"
      ],
      [
        "ta",
        "in"
      ],
      [
        "gu",
        "re"
      ],
      [
        "txt",
        "s"
      ],
      [
        "wat",
        "s"
      ],
      [
        "cou",
        "ple"
      ],
      [
        "pro",
        "mi"
      ],
      [
        "jo",
        "hn"
      ],
      [
        "do",
        "or"
      ],
      [
        "ac",
        "c"
      ],
      [
        "ac",
        "ti"
      ],
      [
        "comp",
        "liment"
      ],
      [
        "may",
        "b"
      ],
      [
        "fi",
        "gure"
      ],
      [
        "pr",
        "ay"
      ],
      [
        "talk",
        "ing"
      ],
      [
        "ki",
        "ck"
      ],
      [
        "with",
        "in"
      ],
      [
        "vie",
        "w"
      ],
      [
        "inv",
        "ited"
      ],
      [
        "ren",
        "ce"
      ],
      [
        "sing",
        "le"
      ],
      [
        "gy",
        "m"
      ],
      [
        "vo",
        "ice"
      ],
      [
        "hmm",
        "m"
      ],
      [
        "indi",
        "a"
      ],
      [
        "bs",
        "lvy"
      ],
      [
        "cur",
        "rently"
      ],
      [
        "bla",
        "ck"
      ],
      [
        "valu",
        "ed"
      ],
      [
        "fil",
        "m"
      ],
      [
        "cat",
        "ch"
      ],
      [
        "reve",
        "al"
      ],
      [
        "ext",
        "ra"
      ],
      [
        "was",
        "nt"
      ],
      [
        "bal",
        "ance"
      ],
      [
        "pho",
        "to"
      ],
      [
        "motor",
        "ola"
      ],
      [
        "stup",
        "id"
      ],
      [
        "bslvy",
        "l"
      ],
      [
        "c",
        "c"
      ],
      [
        "c",
        "s"
      ],
      [
        "e",
        "h"
      ],
      [
        "e",
        "ur"
      ],
      [
        "e",
        "ye"
      ],
      [
        "e",
        "mp"
      ],
      [
        "f",
        "all"
      ],
      [
        "g",
        "ay"
      ],
      [
        "g",
        "la"
      ],
      [
        "h",
        "y"
      ],
      [
        "h",
        "er"
      ],
      [
        "h",
        "oney"
      ],
      [
        "k",
        "en"
      ],
      [
        "k",
        "ate"
      ],
      [
        "k",
        "new"
      ],
      [
        "l",
        "ink"
      ],
      [
        "m",
        "er"
      ],
      [
        "p",
        "y"
      ],
      [
        "p",
        "ow"
      ],
      [
        "p",
        "age"
      ],
      [
        "r",
        "and"
      ],
      [
        "s",
        "al"
      ],
      [
        "w",
        "ar"
      ],
      [
        "w",
        "ow"
      ],
      [
        "re",
        "gi"
      ],
      [
        "ll",
        "i"
      ],
      [
        "st",
        "d"
      ],
      [
        "at",
        "ive"
      ],
      [
        "me",
        "t"
      ],
      [
        "me",
        "ster"
      ],
      [
        "al",
        "i"
      ],
      [
        "se",
        "mester"
      ],
      [
        "sh",
        "o"
      ],
      [
        "li",
        "e"
      ],
      [
        "li",
        "sh"
      ],
      [
        "li",
        "ck"
      ],
      [
        "de",
        "pend"
      ],
      [
        "op",
        "s"
      ],
      [
        "la",
        "pt"
      ],
      [
        "he",
        "ard"
      ],
      [
        "id",
        "er"
      ],
      [
        "ro",
        "ad"
      ],
      [
        "ba",
        "ll"
      ],
      [
        "ho",
        "sp"
      ],
      [
        "po",
        "or"
      ],
      [
        "sp",
        "ort"
      ],
      [
        "vi",
        "a"
      ],
      [
        "time",
        "s"
      ],
      [
        "lea",
        "f"
      ],
      [
        "sa",
        "fe"
      ],
      [
        "send",
        "ing"
      ],
      [
        "da",
        "i"
      ],
      [
        "si",
        "gn"
      ],
      [
        "fa",
        "ct"
      ],
      [
        "ask",
        "d"
      ],
      [
        "oo",
        "oo"
      ],
      [
        "sc",
        "ream"
      ],
      [
        "che",
        "er"
      ],
      [
        "pe",
        "ct"
      ],
      [
        "amp",
        "m"
      ],
      [
        "wan",
        "a"
      ],
      [
        "the",
        "y"
      ],
      [
        "pick",
        "ing"
      ],
      [
        "mon",
        "day"
      ],
      [
        "ip",
        "od"
      ],
      [
        "show",
        "er"
      ],
      [
        "sw",
        "ing"
      ],
      [
        "tru",
        "th"
      ],
      [
        "char",
        "ged"
      ],
      [
        "ny",
        "t"
      ],
      [
        "dis",
        "count"
      ],
      [
        "dar",
        "ren"
      ],
      [
        "inc",
        "lu"
      ],
      [
        "full",
        "y"
      ],
      [
        "tu",
        "ne"
      ],
      [
        "sto",
        "ck"
      ],
      [
        "ww",
        "q"
      ],
      [
        "dist",
        "urb"
      ],
      [
        "sta",
        "ke"
      ],
      [
        "christ",
        "mas"
      ],
      [
        "pet",
        "e"
      ],
      [
        "sma",
        "ll"
      ],
      [
        "inform",
        "ation"
      ],
      [
        "surpri",
        "se"
      ],
      [
        "possi",
        "ble"
      ],
      [
        "suppo",
        "sed"
      ],
      [
        "promi",
        "se"
      ],
      [
        "compliment",
        "ary"
      ],
      [
        "lapt",
        "op"
      ],
      [
        "hosp",
        "ital"
      ],
      [
        "a",
        "v"
      ],
      [
        "b",
        "coz"
      ],
      [
        "c",
        "ation"
      ],
      [
        "c",
        "ance"
      ],
      [
        "d",
        "d"
      ],
      [
        "d",
        "an"
      ],
      [
        "d",
        "ent"
      ],
      [
        "f",
        "et"
      ],
      [
        "f",
        "it"
      ],
      [
        "f",
        "ic"
      ],
      [
        "i",
        "û"
      ],
      [
        "i",
        "ze"
      ],
      [
        "k",
        "er"
      ],
      [
        "l",
        "er"
      ],
      [
        "m",
        "ing"
      ],
      [
        "n",
        "it"
      ],
      [
        "p",
        "rep"
      ],
      [
        "r",
        "t"
      ],
      [
        "r",
        "ound"
      ],
      [
        "r",
        "ply"
      ],
      [
        "u",
        "ght"
      ],
      [
        "u",
        "ation"
      ],
      [
        "w",
        "u"
      ],
      [
        "w",
        "ine"
      ],
      [
        "w",
        "arm"
      ],
      [
        "w",
        "cn"
      ],
      [
        "z",
        "ed"
      ],
      [
        "re",
        "sent"
      ],
      [
        "re",
        "quest"
      ],
      [
        "re",
        "move"
      ],
      [
        "er",
        "ic"
      ],
      [
        "en",
        "tered"
      ],
      [
        "ar",
        "ca"
      ],
      [
        "th",
        "en"
      ],
      [
        "or",
        "ch"
      ],
      [
        "ch",
        "in"
      ],
      [
        "al",
        "a"
      ],
      [
        "al",
        "ity"
      ],
      [
        "lo",
        "an"
      ],
      [
        "lo",
        "va"
      ],
      [
        "ss",
        "y"
      ],
      [
        "ce",
        "le"
      ],
      [
        "call",
        "optout"
      ],
      [
        "la",
        "dy"
      ],
      [
        "we",
        "ar"
      ],
      [
        "ha",
        "s"
      ],
      [
        "get",
        "tin"
      ],
      [
        "id",
        "ent"
      ],
      [
        "ho",
        "o"
      ],
      [
        "as",
        "ap"
      ],
      [
        "su",
        "per"
      ],
      [
        "su",
        "mm"
      ],
      [
        "po",
        "lice"
      ],
      [
        "us",
        "f"
      ],
      [
        "us",
        "ing"
      ],
      [
        "wa",
        "p"
      ],
      [
        "sa",
        "le"
      ],
      [
        "sa",
        "ve"
      ],
      [
        "no",
        "t"
      ],
      [
        "txt",
        "ing"
      ],
      [
        "wat",
        "er"
      ],
      [
        "some",
        "where"
      ],
      [
        "some",
        "body"
      ],
      [
        "cu",
        "te"
      ],
      [
        "jo",
        "ke"
      ],
      [
        "qu",
        "ick"
      ],
      [
        "con",
        "vey"
      ],
      [
        "pa",
        "ck"
      ],
      [
        "ex",
        "pect"
      ],
      [
        "ask",
        "ing"
      ],
      [
        "do",
        "in"
      ],
      [
        "do",
        "gging"
      ],
      [
        "mm",
        "m"
      ],
      [
        "wh",
        "at"
      ],
      [
        "gi",
        "ving"
      ],
      [
        "wo",
        "ke"
      ],
      [
        "check",
        "ing"
      ],
      [
        "hu",
        "i"
      ],
      [
        "book",
        "ed"
      ],
      [
        "cra",
        "ve"
      ],
      [
        "åõ",
        "s"
      ],
      [
        "blo",
        "od"
      ],
      [
        "when",
        "ever"
      ],
      [
        "slow",
        "ly"
      ],
      [
        "fant",
        "asy"
      ],
      [
        "sil",
        "ent"
      ],
      [
        "abi",
        "ola"
      ],
      [
        "ide",
        "a"
      ],
      [
        "hm",
        "v"
      ],
      [
        "orch",
        "ard"
      ],
      [
        "lova",
        "ble"
      ],
      [
        "a",
        "le"
      ],
      [
        "a",
        "ha"
      ],
      [
        "a",
        "part"
      ],
      [
        "b",
        "x"
      ],
      [
        "b",
        "en"
      ],
      [
        "b",
        "ur"
      ],
      [
        "b",
        "id"
      ],
      [
        "c",
        "los"
      ],
      [
        "f",
        "low"
      ],
      [
        "g",
        "re"
      ],
      [
        "h",
        "w"
      ],
      [
        "m",
        "n"
      ],
      [
        "m",
        "and"
      ],
      [
        "n",
        "u"
      ],
      [
        "o",
        "ops"
      ],
      [
        "p",
        "an"
      ],
      [
        "r",
        "d"
      ],
      [
        "r",
        "an"
      ],
      [
        "r",
        "it"
      ],
      [
        "t",
        "at"
      ],
      [
        "t",
        "im"
      ],
      [
        "v",
        "ill"
      ],
      [
        "y",
        "i"
      ],
      [
        "z",
        "ing"
      ],
      [
        "in",
        "ion"
      ],
      [
        "re",
        "f"
      ],
      [
        "re",
        "ci"
      ],
      [
        "re",
        "cent"
      ],
      [
        "ar",
        "r"
      ],
      [
        "ar",
        "ri"
      ],
      [
        "th",
        "n"
      ],
      [
        "th",
        "ur"
      ],
      [
        "ed",
        "u"
      ],
      [
        "ou",
        "ght"
      ],
      [
        "et",
        "oo"
      ],
      [
        "co",
        "py"
      ],
      [
        "ve",
        "lo"
      ],
      [
        "lo",
        "go"
      ],
      [
        "sh",
        "ine"
      ],
      [
        "im",
        "medi"
      ],
      [
        "te",
        "a"
      ],
      [
        "op",
        "inion"
      ],
      [
        "ti",
        "c"
      ],
      [
        "he",
        "sh"
      ],
      [
        "ad",
        "v"
      ],
      [
        "ad",
        "mi"
      ],
      [
        "we",
        "st"
      ],
      [
        "ha",
        "m"
      ],
      [
        "ro",
        "ss"
      ],
      [
        "nt",
        "t"
      ],
      [
        "ba",
        "k"
      ],
      [
        "ho",
        "l"
      ],
      [
        "mi",
        "stake"
      ],
      [
        "wor",
        "ried"
      ],
      [
        "fe",
        "b"
      ],
      [
        "fe",
        "rence"
      ],
      [
        "su",
        "p"
      ],
      [
        "su",
        "ck"
      ],
      [
        "ye",
        "p"
      ],
      [
        "ir",
        "t"
      ],
      [
        "di",
        "g"
      ],
      [
        "di",
        "sc"
      ],
      [
        "sp",
        "end"
      ],
      [
        "sp",
        "ace"
      ],
      [
        "na",
        "h"
      ],
      [
        "no",
        "ti"
      ],
      [
        "no",
        "body"
      ],
      [
        "rep",
        "resent"
      ],
      [
        "si",
        "ck"
      ],
      [
        "cu",
        "p"
      ],
      [
        "stop",
        "txt"
      ],
      [
        "qu",
        "e"
      ],
      [
        "qu",
        "o"
      ],
      [
        "con",
        "s"
      ],
      [
        "ex",
        "act"
      ],
      [
        "ci",
        "al"
      ],
      [
        "spe",
        "ct"
      ],
      [
        "do",
        "g"
      ],
      [
        "do",
        "ctor"
      ],
      [
        "hop",
        "ing"
      ],
      [
        "ac",
        "cess"
      ],
      [
        "ac",
        "ross"
      ],
      [
        "che",
        "ap"
      ],
      [
        "ga",
        "p"
      ],
      [
        "ga",
        "ve"
      ],
      [
        "fi",
        "le"
      ],
      [
        "ton",
        "ite"
      ],
      [
        "cust",
        "care"
      ],
      [
        "wish",
        "ing"
      ],
      [
        "bt",
        "national"
      ],
      [
        "ju",
        "st"
      ],
      [
        "sit",
        "ting"
      ],
      [
        "sit",
        "uation"
      ],
      [
        "tru",
        "st"
      ],
      [
        "other",
        "wise"
      ],
      [
        "pm",
        "t"
      ],
      [
        "reach",
        "ed"
      ],
      [
        "wr",
        "ite"
      ],
      [
        "tu",
        "es"
      ],
      [
        "tr",
        "ans"
      ],
      [
        "eng",
        "land"
      ],
      [
        "nor",
        "mal"
      ],
      [
        "blu",
        "etoo"
      ],
      [
        "caller",
        "tune"
      ],
      [
        "bat",
        "he"
      ],
      [
        "ast",
        "ic"
      ],
      [
        "gb",
        "p"
      ],
      [
        "pra",
        "cti"
      ],
      [
        "fant",
        "astic"
      ],
      [
        "ener",
        "gy"
      ],
      [
        "reg",
        "ard"
      ],
      [
        "fix",
        "ed"
      ],
      [
        "diffe",
        "rent"
      ],
      [
        "emp",
        "ty"
      ],
      [
        "gla",
        "d"
      ],
      [
        "pow",
        "er"
      ],
      [
        "rand",
        "om"
      ],
      [
        "wcn",
        "xx"
      ],
      [
        "summ",
        "er"
      ],
      [
        "immedi",
        "ately"
      ],
      [
        "admi",
        "rer"
      ],
      [
        "represent",
        "ative"
      ],
      [
        "bluetoo",
        "th"
      ],
      [
        "a",
        "ve"
      ],
      [
        "a",
        "un"
      ],
      [
        "a",
        "po"
      ],
      [
        "a",
        "int"
      ],
      [
        "a",
        "waiting"
      ],
      [
        "a",
        "gue"
      ],
      [
        "b",
        "cm"
      ],
      [
        "c",
        "st"
      ],
      [
        "c",
        "ri"
      ],
      [
        "c",
        "reat"
      ],
      [
        "c",
        "ity"
      ],
      [
        "e",
        "gg"
      ],
      [
        "e",
        "specially"
      ],
      [
        "f",
        "l"
      ],
      [
        "f",
        "at"
      ],
      [
        "f",
        "light"
      ],
      [
        "g",
        "en"
      ],
      [
        "g",
        "reet"
      ],
      [
        "h",
        "in"
      ],
      [
        "i",
        "gh"
      ],
      [
        "j",
        "st"
      ],
      [
        "j",
        "or"
      ],
      [
        "k",
        "an"
      ],
      [
        "l",
        "r"
      ],
      [
        "m",
        "b"
      ],
      [
        "m",
        "it"
      ],
      [
        "n",
        "one"
      ],
      [
        "n",
        "oun"
      ],
      [
        "o",
        "b"
      ],
      [
        "p",
        "c"
      ],
      [
        "p",
        "op"
      ],
      [
        "p",
        "wk"
      ],
      [
        "r",
        "ay"
      ],
      [
        "s",
        "li"
      ],
      [
        "t",
        "n"
      ],
      [
        "t",
        "ure"
      ],
      [
        "v",
        "r"
      ],
      [
        "v",
        "ity"
      ],
      [
        "v",
        "ary"
      ],
      [
        "w",
        "y"
      ],
      [
        "w",
        "hi"
      ],
      [
        "w",
        "om"
      ],
      [
        "û",
        "ò"
      ],
      [
        "re",
        "cor"
      ],
      [
        "re",
        "mind"
      ],
      [
        "re",
        "ference"
      ],
      [
        "on",
        "d"
      ],
      [
        "st",
        "reet"
      ],
      [
        "at",
        "t"
      ],
      [
        "at",
        "ar"
      ],
      [
        "th",
        "t"
      ],
      [
        "me",
        "h"
      ],
      [
        "or",
        "i"
      ],
      [
        "le",
        "m"
      ],
      [
        "le",
        "s"
      ],
      [
        "le",
        "y"
      ],
      [
        "ch",
        "ang"
      ],
      [
        "it",
        "u"
      ],
      [
        "ve",
        "l"
      ],
      [
        "lo",
        "yal"
      ],
      [
        "li",
        "on"
      ],
      [
        "li",
        "ft"
      ],
      [
        "ce",
        "ment"
      ],
      [
        "ur",
        "self"
      ],
      [
        "de",
        "ad"
      ],
      [
        "de",
        "fin"
      ],
      [
        "de",
        "live"
      ],
      [
        "call",
        "s"
      ],
      [
        "ok",
        "en"
      ],
      [
        "la",
        "x"
      ],
      [
        "la",
        "zy"
      ],
      [
        "un",
        "less"
      ],
      [
        "he",
        "a"
      ],
      [
        "he",
        "re"
      ],
      [
        "ad",
        "i"
      ],
      [
        "we",
        "ed"
      ],
      [
        "mo",
        "on"
      ],
      [
        "mo",
        "de"
      ],
      [
        "so",
        "fa"
      ],
      [
        "ro",
        "se"
      ],
      [
        "ba",
        "si"
      ],
      [
        "ho",
        "tel"
      ],
      [
        "as",
        "ing"
      ],
      [
        "fe",
        "ction"
      ],
      [
        "bo",
        "s"
      ],
      [
        "bo",
        "ld"
      ],
      [
        "ra",
        "ct"
      ],
      [
        "mp",
        "a"
      ],
      [
        "ta",
        "mpa"
      ],
      [
        "us",
        "er"
      ],
      [
        "good",
        "night"
      ],
      [
        "wa",
        "h"
      ],
      [
        "pi",
        "e"
      ],
      [
        "pi",
        "ct"
      ],
      [
        "hi",
        "ya"
      ],
      [
        "cu",
        "se"
      ],
      [
        "ph",
        "on"
      ],
      [
        "see",
        "ms"
      ],
      [
        "think",
        "in"
      ],
      [
        "bu",
        "ck"
      ],
      [
        "ex",
        "cuse"
      ],
      [
        "do",
        "ll"
      ],
      [
        "ac",
        "cept"
      ],
      [
        "let",
        "ter"
      ],
      [
        "stu",
        "dent"
      ],
      [
        "colle",
        "ague"
      ],
      [
        "app",
        "reci"
      ],
      [
        "buy",
        "ing"
      ],
      [
        "start",
        "ing"
      ],
      [
        "mr",
        "t"
      ],
      [
        "char",
        "ity"
      ],
      [
        "sun",
        "shine"
      ],
      [
        "mean",
        "ing"
      ],
      [
        "other",
        "s"
      ],
      [
        "reach",
        "ing"
      ],
      [
        "subscri",
        "ption"
      ],
      [
        "bring",
        "s"
      ],
      [
        "wonder",
        "ing"
      ],
      [
        "stay",
        "ing"
      ],
      [
        "kin",
        "da"
      ],
      [
        "tr",
        "an"
      ],
      [
        "tr",
        "ouble"
      ],
      [
        "sen",
        "se"
      ],
      [
        "indi",
        "an"
      ],
      [
        "sty",
        "le"
      ],
      [
        "pass",
        "word"
      ],
      [
        "study",
        "ing"
      ],
      [
        "fla",
        "g"
      ],
      [
        "seri",
        "ously"
      ],
      [
        "fore",
        "ver"
      ],
      [
        "usu",
        "al"
      ],
      [
        "complete",
        "ly"
      ],
      [
        "forward",
        "ed"
      ],
      [
        "cell",
        "ent"
      ],
      [
        "deci",
        "de"
      ],
      [
        "fren",
        "s"
      ],
      [
        "resu",
        "lt"
      ],
      [
        "mer",
        "ry"
      ],
      [
        "dig",
        "ital"
      ],
      [
        "recor",
        "d"
      ],
      [
        "a",
        "wake"
      ],
      [
        "b",
        "un"
      ],
      [
        "b",
        "ha"
      ],
      [
        "b",
        "and"
      ],
      [
        "c",
        "ru"
      ],
      [
        "c",
        "cess"
      ],
      [
        "d",
        "ry"
      ],
      [
        "d",
        "vd"
      ],
      [
        "f",
        "ly"
      ],
      [
        "h",
        "ar"
      ],
      [
        "h",
        "one"
      ],
      [
        "h",
        "ang"
      ],
      [
        "i",
        "b"
      ],
      [
        "i",
        "an"
      ],
      [
        "i",
        "fe"
      ],
      [
        "i",
        "åõ"
      ],
      [
        "i",
        "ssu"
      ],
      [
        "k",
        "b"
      ],
      [
        "l",
        "ity"
      ],
      [
        "o",
        "c"
      ],
      [
        "o",
        "th"
      ],
      [
        "p",
        "in"
      ],
      [
        "p",
        "at"
      ],
      [
        "p",
        "or"
      ],
      [
        "r",
        "reveal"
      ],
      [
        "s",
        "pl"
      ],
      [
        "t",
        "wi"
      ],
      [
        "t",
        "ough"
      ],
      [
        "u",
        "find"
      ],
      [
        "u",
        "ary"
      ],
      [
        "v",
        "in"
      ],
      [
        "v",
        "ir"
      ],
      [
        "v",
        "om"
      ],
      [
        "w",
        "all"
      ],
      [
        "y",
        "un"
      ],
      [
        "å",
        "pm"
      ],
      [
        "û",
        "s"
      ],
      [
        "re",
        "ly"
      ],
      [
        "er",
        "s"
      ],
      [
        "er",
        "t"
      ],
      [
        "an",
        "a"
      ],
      [
        "ar",
        "a"
      ],
      [
        "ar",
        "n"
      ],
      [
        "ar",
        "gu"
      ],
      [
        "th",
        "row"
      ],
      [
        "th",
        "ru"
      ],
      [
        "or",
        "ge"
      ],
      [
        "le",
        "ad"
      ],
      [
        "le",
        "ction"
      ],
      [
        "ca",
        "p"
      ],
      [
        "ca",
        "li"
      ],
      [
        "ca",
        "mp"
      ],
      [
        "go",
        "to"
      ],
      [
        "ch",
        "an"
      ],
      [
        "ch",
        "ill"
      ],
      [
        "co",
        "ok"
      ],
      [
        "co",
        "ffe"
      ],
      [
        "it",
        "led"
      ],
      [
        "sh",
        "an"
      ],
      [
        "sh",
        "ould"
      ],
      [
        "sh",
        "irt"
      ],
      [
        "li",
        "c"
      ],
      [
        "li",
        "br"
      ],
      [
        "im",
        "ag"
      ],
      [
        "ow",
        "ard"
      ],
      [
        "te",
        "ar"
      ],
      [
        "ri",
        "ble"
      ],
      [
        "ent",
        "itled"
      ],
      [
        "ne",
        "l"
      ],
      [
        "ne",
        "ss"
      ],
      [
        "ne",
        "sday"
      ],
      [
        "un",
        "ity"
      ],
      [
        "he",
        "l"
      ],
      [
        "we",
        "ir"
      ],
      [
        "we",
        "ight"
      ],
      [
        "ha",
        "i"
      ],
      [
        "mo",
        "od"
      ],
      [
        "mo",
        "ther"
      ],
      [
        "ant",
        "a"
      ],
      [
        "ba",
        "g"
      ],
      [
        "be",
        "come"
      ],
      [
        "su",
        "s"
      ],
      [
        "su",
        "ccess"
      ],
      [
        "bo",
        "ther"
      ],
      [
        "po",
        "t"
      ],
      [
        "free",
        "phone"
      ],
      [
        "min",
        "s"
      ],
      [
        "ta",
        "ble"
      ],
      [
        "sp",
        "ent"
      ],
      [
        "vi",
        "ously"
      ],
      [
        "wi",
        "v"
      ],
      [
        "any",
        "more"
      ],
      [
        "um",
        "ma"
      ],
      [
        "ble",
        "ss"
      ],
      [
        "pi",
        "zz"
      ],
      [
        "some",
        "times"
      ],
      [
        "hi",
        "gh"
      ],
      [
        "work",
        "in"
      ],
      [
        "fu",
        "ture"
      ],
      [
        "om",
        "g"
      ],
      [
        "bu",
        "zz"
      ],
      [
        "lu",
        "x"
      ],
      [
        "fa",
        "ult"
      ],
      [
        "ex",
        "c"
      ],
      [
        "ex",
        "peri"
      ],
      [
        "reply",
        "ing"
      ],
      [
        "mm",
        "mm"
      ],
      [
        "you",
        "d"
      ],
      [
        "sle",
        "pt"
      ],
      [
        "ya",
        "hoo"
      ],
      [
        "gent",
        "le"
      ],
      [
        "off",
        "ici"
      ],
      [
        "pre",
        "sent"
      ],
      [
        "pick",
        "ed"
      ],
      [
        "how",
        "ever"
      ],
      [
        "part",
        "ner"
      ],
      [
        "plan",
        "ning"
      ],
      [
        "mar",
        "ried"
      ],
      [
        "real",
        "y"
      ],
      [
        "eat",
        "ing"
      ],
      [
        "room",
        "mate"
      ],
      [
        "rece",
        "i"
      ],
      [
        "ni",
        "ger"
      ],
      [
        "fun",
        "ny"
      ],
      [
        "mat",
        "ter"
      ],
      [
        "special",
        "call"
      ],
      [
        "long",
        "er"
      ],
      [
        "cle",
        "ar"
      ],
      [
        "pay",
        "ing"
      ],
      [
        "tra",
        "ck"
      ],
      [
        "ste",
        "m"
      ],
      [
        "ste",
        "red"
      ],
      [
        "bed",
        "room"
      ],
      [
        "where",
        "s"
      ],
      [
        "poly",
        "s"
      ],
      [
        "br",
        "and"
      ],
      [
        "dad",
        "dy"
      ],
      [
        "face",
        "book"
      ],
      [
        "join",
        "ed"
      ],
      [
        "cond",
        "ition"
      ],
      [
        "str",
        "ong"
      ],
      [
        "ww",
        "x"
      ],
      [
        "wed",
        "nesday"
      ],
      [
        "medi",
        "cal"
      ],
      [
        "train",
        "ing"
      ],
      [
        "max",
        "im"
      ],
      [
        "mal",
        "ar"
      ],
      [
        "cine",
        "ma"
      ],
      [
        "jan",
        "uary"
      ],
      [
        "sms",
        "com"
      ],
      [
        "fro",
        "m"
      ],
      [
        "sou",
        "th"
      ],
      [
        "conne",
        "ct"
      ],
      [
        "interest",
        "ed"
      ],
      [
        "fing",
        "er"
      ],
      [
        "sla",
        "ve"
      ],
      [
        "eur",
        "o"
      ],
      [
        "regi",
        "stered"
      ],
      [
        "they",
        "re"
      ],
      [
        "cance",
        "l"
      ],
      [
        "ale",
        "x"
      ],
      [
        "apart",
        "ment"
      ],
      [
        "cons",
        "ider"
      ],
      [
        "btnational",
        "rate"
      ],
      [
        "pmt",
        "msg"
      ],
      [
        "tues",
        "day"
      ],
      [
        "wom",
        "an"
      ],
      [
        "chang",
        "ed"
      ],
      [
        "defin",
        "ite"
      ],
      [
        "pict",
        "ure"
      ],
      [
        "issu",
        "e"
      ],
      [
        "coffe",
        "e"
      ],
      [
        "libr",
        "ary"
      ],
      [
        "pizz",
        "a"
      ],
      [
        "experi",
        "ence"
      ],
      [
        "niger",
        "ia"
      ],
      [
        "a",
        "ff"
      ],
      [
        "a",
        "per"
      ],
      [
        "a",
        "che"
      ],
      [
        "a",
        "rent"
      ],
      [
        "a",
        "head"
      ],
      [
        "b",
        "ye"
      ],
      [
        "b",
        "reat"
      ],
      [
        "b",
        "rain"
      ],
      [
        "c",
        "ing"
      ],
      [
        "c",
        "ed"
      ],
      [
        "c",
        "lick"
      ],
      [
        "d",
        "ge"
      ],
      [
        "e",
        "ss"
      ],
      [
        "e",
        "la"
      ],
      [
        "e",
        "as"
      ],
      [
        "g",
        "m"
      ],
      [
        "i",
        "f"
      ],
      [
        "i",
        "i"
      ],
      [
        "i",
        "led"
      ],
      [
        "k",
        "ill"
      ],
      [
        "k",
        "all"
      ],
      [
        "l",
        "on"
      ],
      [
        "l",
        "ou"
      ],
      [
        "l",
        "ma"
      ],
      [
        "l",
        "us"
      ],
      [
        "m",
        "l"
      ],
      [
        "n",
        "al"
      ],
      [
        "n",
        "im"
      ],
      [
        "n",
        "xt"
      ],
      [
        "o",
        "ver"
      ],
      [
        "p",
        "od"
      ],
      [
        "r",
        "at"
      ],
      [
        "r",
        "um"
      ],
      [
        "r",
        "ather"
      ],
      [
        "s",
        "ight"
      ],
      [
        "s",
        "ive"
      ],
      [
        "t",
        "it"
      ],
      [
        "t",
        "oward"
      ],
      [
        "u",
        "ll"
      ],
      [
        "u",
        "ve"
      ],
      [
        "v",
        "l"
      ],
      [
        "v",
        "ry"
      ],
      [
        "w",
        "b"
      ],
      [
        "w",
        "n"
      ],
      [
        "w",
        "er"
      ],
      [
        "w",
        "un"
      ],
      [
        "x",
        "h"
      ],
      [
        "y",
        "m"
      ],
      [
        "y",
        "ah"
      ],
      [
        "y",
        "don"
      ],
      [
        "z",
        "it"
      ],
      [
        "in",
        "ste"
      ],
      [
        "in",
        "sur"
      ],
      [
        "in",
        "side"
      ],
      [
        "re",
        "k"
      ],
      [
        "re",
        "me"
      ],
      [
        "re",
        "main"
      ],
      [
        "re",
        "spect"
      ],
      [
        "re",
        "lax"
      ],
      [
        "on",
        "i"
      ],
      [
        "on",
        "to"
      ],
      [
        "er",
        "ife"
      ],
      [
[...]
